{
  "</s>": 0,
  "<unk>": 1,
  "-": 2,
  ",": 3,
  "\u2581the": 4,
  ".": 5,
  "'": 6,
  "\u2581of": 7,
  "\u2581ta": 8,
  "\u2581l": 9,
  "\u2581tal": 10,
  "\u2581u": 11,
  "\u2581and": 12,
  "\u2581li": 13,
  "\u2581to": 14,
  "\u2581": 15,
  "\u2581(": 16,
  "\u2581in": 17,
  "\u2581il": 18,
  ")": 19,
  "\u2581a": 20,
  "\u2581for": 21,
  "\u2581-": 22,
  "s": 23,
  "\u2581is": 24,
  ":": 25,
  "\u2581be": 26,
  "\u2581g\u0127all": 27,
  "\u2581or": 28,
  "\u2581on": 29,
  "\u2581jew": 30,
  "\u2581with": 31,
  "\u2581\"": 32,
  "\u2581fil": 33,
  "\u2581b": 34,
  "\u2581The": 35,
  ";": 36,
  "\u2581that": 37,
  "\u2581L": 38,
  "\u2581f": 39,
  "\u2581by": 40,
  "/": 41,
  "\u2581ma": 42,
  "\u2581g\u0127al": 43,
  "\u2581'": 44,
  "\u2581mill": 45,
  "\u2581fl": 46,
  "a": 47,
  "\u2581as": 48,
  "\u2581it": 49,
  "\u2581Il": 50,
  "\u2581minn": 51,
  "\u2581dwar": 52,
  "\u2581shall": 53,
  "\u2581fuq": 54,
  "i": 55,
  "\u2581not": 56,
  "\u2581are": 57,
  "\u2581tas": 58,
  "\u2581Article": 59,
  "\u2581tat": 60,
  "\u2581biex": 61,
  "\u2581from": 62,
  "\u2581ir": 63,
  "ing": 64,
  "\u2581European": 65,
  "\u2581this": 66,
  "\u2581t": 67,
  "jiet": 68,
  "\u25811": 69,
  "\u2581Commission": 70,
  "Kummissjoni": 71,
  "\u2581an": 72,
  "\u2581Regulation": 73,
  "\u2581which": 74,
  "\u2581at": 75,
  "\u2581tar": 76,
  "\u2581tad": 77,
  "\u2581g\u0127andhom": 78,
  "Regolament": 79,
  "Artikolu": 80,
  "\u2581In": 81,
  "\u2581id": 82,
  "\u2581g\u0127andu": 83,
  "\u2581Member": 84,
  "UE": 85,
  "\u2581should": 86,
  ").": 87,
  "\u2581dan": 88,
  "\u2581kif": 89,
  "\u2581lill": 90,
  "e": 91,
  "\u2581have": 92,
  "),": 93,
  "\u2581No": 94,
  "\u25812": 95,
  "\u2581p": 96,
  "\u2581mal": 97,
  "\u2581A": 98,
  "\u2581s": 99,
  "\u2581huma": 100,
  "\u2581other": 101,
  "\u2581.": 102,
  "\u2581r": 103,
  "\u2581g\u0127andha": 104,
  "\u2581d": 105,
  "\u2581I": 106,
  "\u2581Union": 107,
  "Unjoni": 108,
  "mod": 109,
  "\u2581huwa": 110,
  "\"": 111,
  "\u2581ji\u0121u": 112,
  "\u2581Nru": 113,
  "\u2581may": 114,
  "\u2581its": 115,
  "\u2581fis": 116,
  "\u2581States": 117,
  "x": 118,
  "\u2581has": 119,
  "\u2581was": 120,
  "\u2581mhux": 121,
  "\u25813": 122,
  "KE": 123,
  "\u2581EU": 124,
  "\u2581skont": 125,
  "b": 126,
  "EC": 127,
  "\u2581Membri": 128,
  "\u2581mg": 129,
  "\u2581will": 130,
  "Istati": 131,
  "\u2581Council": 132,
  "Kunsill": 133,
  "\u2581B": 134,
  "l": 135,
  "ed": 136,
  "\u2581tag\u0127hom": 137,
  "\u2581aktar": 138,
  "\u2581their": 139,
  "\u2581jkun": 140,
  "\u2581It": 141,
  "\u2581all": 142,
  "\u2581tkun": 143,
  "\u2581n": 144,
  "\u2581jekk": 145,
  "\u2581ji\u0121i": 146,
  "\u2581Ewropea": 147,
  "\u2581b\u0127ala": 148,
  "\u2581fi": 149,
  "t": 150,
  "\u2581tieg\u0127u": 151,
  "u": 152,
  "\u2581kollha": 153,
  "\u25815": 154,
  "\u2581been": 155,
  "\u2581hija": 156,
  "\u25814": 157,
  "\u2581C": 158,
  "\u2581any": 159,
  "\u2581bil": 160,
  "\u2581meta": 161,
  "in": 162,
  "?": 163,
  "\u2581than": 164,
  "\u2581m": 165,
  "\u2581information": 166,
  "\u2581wara": 167,
  "\u2581use": 168,
  "\u2581you": 169,
  "\u2581dawn": 170,
  "d": 171,
  "c": 172,
  "\u2581kull": 173,
  "\u2581sabiex": 174,
  "\u2581S": 175,
  "\u2581This": 176,
  "\u02bc": 177,
  "\u2581jista": 178,
  "\u2581din": 179,
  "il": 180,
  "\u2581under": 181,
  "\u2581ti\u0121i": 182,
  "\u2581also": 183,
  "\u2581o\u0127ra": 184,
  "\u2581Ewropew": 185,
  "\u2581out": 186,
  "\u2581jistg\u0127u": 187,
  "\u2581bejn": 188,
  "\u2581more": 189,
  "\u2581into": 190,
  "\u2581F": 191,
  "\u2581such": 192,
  "A": 193,
  "\u2581ukoll": 194,
  "\u2581fir": 195,
  "h": 196,
  "EU": 197,
  "\u2581following": 198,
  "\u2581fit": 199,
  "C": 200,
  "\u2581can": 201,
  "\u2581se": 202,
  "\u2581Artikolu": 203,
  "\u2581hemm": 204,
  "2": 205,
  "\u2581(1)": 206,
  "\u258110": 207,
  "\u2581State": 208,
  "\u2581Directive": 209,
  "\u2581if": 210,
  "\u2581accordance": 211,
  "\u25816": 212,
  "\u2581measures": 213,
  "\u2581patients": 214,
  "\u2581data": 215,
  "\u2581T": 216,
  "\u2581Annex": 217,
  "\u2581dawk": 218,
  "S": 219,
  "\u2581qed": 220,
  "\u2581were": 221,
  "\u2581tag\u0127ha": 222,
  "Direttiva": 223,
  "\u2581kien": 224,
  "\u2581sa": 225,
  "\u2581one": 226,
  "\u2581jkunu": 227,
  "\u2581fejn": 228,
  "\u2581between": 229,
  "\u2581used": 230,
  "\u2581bl": 231,
  "suq": 232,
  "\u2581g\u0127at": 233,
  "\u2581ikun": 234,
  "Anness": 235,
  "\u2581qabel": 236,
  "\u2581Dan": 237,
  "\u2581Ir": 238,
  "\u2581market": 239,
  "al": 240,
  "\u2581ta\u0127t": 241,
  "g": 242,
  "\u2581tista": 243,
  "\u2581products": 244,
  "\u2581E": 245,
  "\u2581permezz": 246,
  "ly": 247,
  "\u2581lil": 248,
  "\u2581xi": 249,
  "w": 250,
  "\u2581they": 251,
  "\u2581those": 252,
  "\u2581where": 253,
  "\u2581P": 254,
  "\u2581biss": 255,
  "\u2581ikunu": 256,
  "\u2581nazzjonali": 257,
  "\u2581national": 258,
  "\u2581kienu": 259,
  "\u2581fid": 260,
  "\u2581your": 261,
  "\u2581(2)": 262,
  "\u2581tan": 263,
  "\u2581financial": 264,
  "u\u017cu": 265,
  "\u2581referred": 266,
  "\u2581within": 267,
  "\u2581set": 268,
  "\u2581M": 269,
  "\u2581wie\u0127ed": 270,
  "\u25817": 271,
  "\u2581including": 272,
  "\u2581new": 273,
  "\u2581wkoll": 274,
  "\u2581For": 275,
  "\u2581provided": 276,
  "\u2581Decision": 277,
  "\u2581partikolari": 278,
  "\u2581Id": 279,
  "\u2581particular": 280,
  "rigward": 281,
  "n": 282,
  "\u2581time": 283,
  "\u2581these": 284,
  "\u2581tax": 285,
  "\u2581up": 286,
  "\u2581[": 287,
  "\u2581no": 288,
  "y": 289,
  "\u2581would": 290,
  "\u2581Membru": 291,
  "\u2581II": 292,
  "m": 293,
  "\u2581only": 294,
  "\u2581order": 295,
  "\u2581g": 296,
  "\u2581D": 297,
  "\u25818": 298,
  "dan": 299,
  "\u2581Jekk": 300,
  "\u2581when": 301,
  "\u2581Parliament": 302,
  "\u2581after": 303,
  "r": 304,
  "\u2581g\u0127as": 305,
  "\u2581period": 306,
  "\u2581i": 307,
  "\u2581must": 308,
  "\u2581dak": 309,
  "\u2581bi": 310,
  "Parlament": 311,
  "ewwel": 312,
  "na": 313,
  "Istat": 314,
  "\u2581system": 315,
  "\u2581level": 316,
  "D": 317,
  "\u2581but": 318,
  "\u2581Is": 319,
  "\u258120": 320,
  "De\u010bi\u017cjoni": 321,
  "\u2581EUR": 322,
  "\u2581N": 323,
  "\u2581e": 324,
  "\u25811.": 325,
  "\u2581x": 326,
  "\u2581treatment": 327,
  "or": 328,
  "\u2581authorities": 329,
  "\u2581If": 330,
  "\u2581public": 331,
  "\u2581paragraph": 332,
  "\u2581pazjenti": 333,
  "]": 334,
  "\u2581services": 335,
  "\u258130": 336,
  "\u2581ensure": 337,
  "\u2581\u0127afna": 338,
  "\u2581regard": 339,
  "o": 340,
  "er": 341,
  "E": 342,
  "\u2581dose": 343,
  "\u2581tieg\u0127ek": 344,
  "\u258115": 345,
  "\u2581non": 346,
  "\u2581THE": 347,
  "\u2581conditions": 348,
  "\u258112": 349,
  "\u2581take": 350,
  "\u2581risk": 351,
  "\u2581requirements": 352,
  "\u2581kemm": 353,
  "B": 354,
  "I": 355,
  "\u2581necessary": 356,
  "li": 357,
  "\u2581who": 358,
  "\u2581billi": 359,
  "\u2581prodotti": 360,
  "\u2581j": 361,
  "\u2581rules": 362,
  "\u2581countries": 363,
  "implimentazzjoni": 364,
  "awtoritajiet": 365,
  "\u25819": 366,
  "\u2581Je": 367,
  "\u2581first": 368,
  "\u2581made": 369,
  "\u2581point": 370,
  "\u2581product": 371,
  "\u2581Wara": 372,
  "\u2581down": 373,
  "\u2581each": 374,
  "\u2581informazzjoni": 375,
  "ka\u017c": 376,
  "\u2581Committee": 377,
  "\u2581\u017cmien": 378,
  "paragrafu": 379,
  "\u2581U": 380,
  "\u2581kwalunkwe": 381,
  "\u2581case": 382,
  "\u2581ml": 383,
  "\u2581kienet": 384,
  "\u2581during": 385,
  "\u2581kontra": 386,
  "\u2581number": 387,
  "livell": 388,
  "\u2581g\u0127ad": 389,
  "data": 390,
  "\u2581years": 391,
  "\u2581appropriate": 392,
  ".\"": 393,
  "ta": 394,
  "\u2581g\u0127ar": 395,
  "informazzjoni": 396,
  "\u2581ming\u0127ajr": 397,
  "mi\u017curi": 398,
  "\u2581application": 399,
  "\u2581H": 400,
  "\u2581wa\u0127da": 401,
  "\u2581o\u0127rajn": 402,
  "\u2581b\u0127al": 403,
  "\u2581Din": 404,
  "f": 405,
  "\u2581support": 406,
  "Kumitat": 407,
  "\u2581relevant": 408,
  "\u2581means": 409,
  "\u2581ie\u0127or": 410,
  "k": 411,
  "\u2581OF": 412,
  "istess": 413,
  "\u2581do": 414,
  "\u2581Community": 415,
  "N": 416,
  "\u2581komuni": 417,
  "\u2581iktar": 418,
  "\u2581V": 419,
  "\u2581development": 420,
  "\u2581min\u0127abba": 421,
  "\u2581part": 422,
  "applikazzjoni": 423,
  "\u2581available": 424,
  "\u2581hu": 425,
  "\u2581R": 426,
  "\u2581(3)": 427,
  "L": 428,
  "\u2581&": 429,
  "\u2581provisions": 430,
  "\u2581aid": 431,
  "\u2581basis": 432,
  "\u2581i\u017cda": 433,
  "\u2581specific": 434,
  "\u2581\u0121enerali": 435,
  "3": 436,
  "\u2581flimkien": 437,
  "konformit\u00e0": 438,
  "1": 439,
  "\u258111": 440,
  "\u2581well": 441,
  "\u2581through": 442,
  "\u2581two": 443,
  "\u2581TA": 444,
  "ti": 445,
  "\u2581policy": 446,
  "\u2581do\u017ca": 447,
  "es": 448,
  "\u2581year": 449,
  "\u2581stabbiliti": 450,
  "\u2581Agreement": 451,
  "\u2022": 452,
  "\u2581so": 453,
  "punt": 454,
  "\u2581/": 455,
  "\u2581provide": 456,
  "T": 457,
  "\u258125": 458,
  "\u2581de": 459,
  "i\u017cvilupp": 460,
  "\u2581ta\u017c": 461,
  "\u2581hekk": 462,
  "\u2581had": 463,
  "\u2581certain": 464,
  "\u2581\u0121ew": 465,
  "\u2581before": 466,
  "\u2581third": 467,
  "\u2581\u0121ej": 468,
  "\u2581there": 469,
  "\u2581lejn": 470,
  "\u2581need": 471,
  "\u2581account": 472,
  "\u2581apply": 473,
  "\u258118": 474,
  "\u2581activities": 475,
  "Ftehim": 476,
  "\u258113": 477,
  "\u2581taken": 478,
  "\u2581same": 479,
  "prodotti": 480,
  "\u2581100": 481,
  "\u0127": 482,
  "\u2581matul": 483,
  "\u2581economic": 484,
  "\u2581work": 485,
  "ara": 486,
  "\u2581them": 487,
  "\u25814.": 488,
  "\u2581over": 489,
  "\u2581his": 490,
  "on": 491,
  "\u2581min": 492,
  "\u2581Fil": 493,
  "\u2581does": 494,
  "sistema": 495,
  "R": 496,
  "\u2581G": 497,
  "\u258114": 498,
  "\u2581implementation": 499,
  "\u2581we": 500,
  ");": 501,
  "\u2581me\u0127tie\u0121a": 502,
  "\u2581applicable": 503,
  "\u2581\u0121ejjin": 504,
  "\u2581rilevanti": 505,
  "\u2581without": 506,
  "\u2581per": 507,
  "\u2581management": 508,
  "\u258116": 509,
  "the": 510,
  "P": 511,
  "ha": 512,
  "\u2581mi\u017curi": 513,
  "\u2581mod": 514,
  "\u2581sena": 515,
  "\u2581protection": 516,
  "Trattat": 517,
  "g\u0127an": 518,
  "\u2581Treaty": 519,
  "F": 520,
  "\u2581waqt": 521,
  "\u2581concerned": 522,
  "\u2581As": 523,
  "\u2581common": 524,
  "\u2581K": 525,
  "\u2581therefore": 526,
  "\u25812009": 527,
  "\u2581TAL": 528,
  "\u258124": 529,
  "\u2581disponibbli": 530,
  "\u2581could": 531,
  "\u258150": 532,
  "\u2581III": 533,
  "\u2581about": 534,
  "\u2581control": 535,
  "\u2581Meta": 536,
  "\u2581ser": 537,
  "\u2581value": 538,
  "\u2581Fl": 539,
  "\u2581parti": 540,
  "\u2581msemmija": 541,
  "\u2581given": 542,
  "\u2581based": 543,
  "\u258121": 544,
  "\u2581energy": 545,
  "se\u0127\u0127": 546,
  "\u2581mid": 547,
  "\u2581so\u010bjali": 548,
  "p": 549,
  "\u2581subject": 550,
  "\u2581day": 551,
  "rekwi\u017citi": 552,
  "\u2581effects": 553,
  "\u2581\u0120U": 554,
  "\u2581+": 555,
  "\u2581procedure": 556,
  "\u2581decision": 557,
  "\u2581mis": 558,
  "\u2581force": 559,
  "\u2581OJ": 560,
  "\u2581some": 561,
  "\u2581dik": 562,
  "\u2581i\u017c": 563,
  "\u258117": 564,
  "\u2581ta\u010b": 565,
  "\u2581area": 566,
  "\u2581Stat": 567,
  "\u2581report": 568,
  "ener\u0121ija": 569,
  "\u2581test": 570,
  "regoli": 571,
  "en": 572,
  "\u2581he": 573,
  "hom": 574,
  "dispo\u017cizzjoni": 575,
  "\u2581Europe": 576,
  "\u2581considered": 577,
  "\u2581\u0121ie": 578,
  "\u2581further": 579,
  "see": 580,
  "\u2581authority": 581,
  "\u2581social": 582,
  "perjodu": 583,
  "\u2581date": 584,
  "a\u0127\u0127ar": 585,
  "xog\u0127ol": 586,
  "\u2581December": 587,
  "\u2581costs": 588,
  "\u2581re": 589,
  "4": 590,
  "ebda": 591,
  "-1": 592,
  "\u2581April": 593,
  "\u2581possible": 594,
  "\u2581kompetenti": 595,
  "\u2581whether": 596,
  "at": 597,
  "\u2581make": 598,
  "\u2581legal": 599,
  "\u2581type": 600,
  "\u2581c": 601,
  "\u2581least": 602,
  "M": 603,
  "\u2581X": 604,
  "\u2581inklu\u017ci": 605,
  "\u2581adopted": 606,
  "\u2581safety": 607,
  "\u258122": 608,
  "\u2581differenti": 609,
  "\u2581hawn": 610,
  "\u2581Hav": 611,
  "\u2581established": 612,
  "\u2581assessment": 613,
  "\u2581amount": 614,
  "\u2581competent": 615,
  "servizzi": 616,
  "sa\u0127\u0127a": 617,
  "\u2581law": 618,
  "\u2581standard": 619,
  "\u2581production": 620,
  "\u2581finanzjarji": 621,
  "\u2581required": 622,
  "\u25812011": 623,
  "\u2581mit": 624,
  "\u2581Madankollu": 625,
  "\u2581G\u0127all": 626,
  "\u2581respect": 627,
  "\u2581blood": 628,
  "\u2581total": 629,
  "\u2581pre": 630,
  "\u2581section": 631,
  "et": 632,
  "\u2581u\u017cu": 633,
  "\u2581country": 634,
  "\u2581anti": 635,
  "\u2581people": 636,
  "\u25811,": 637,
  "\u2581concerning": 638,
  "\u2581high": 639,
  "G": 640,
  "\u25812013": 641,
  "\u2581IL": 642,
  "\u2581internazzjonali": 643,
  "\u25812008": 644,
  "\u2581Di\u010bembru": 645,
  "\u2581increase": 646,
  "ment": 647,
  "azzjoni": 648,
  "tip": 649,
  "is": 650,
  "H": 651,
  "\u2581spe\u010bifi\u010bi": 652,
  "\u2581mm": 653,
  "\u2581fih": 654,
  "\u2581technical": 655,
  "\u2581kura": 656,
  "\u2581kg": 657,
  "\u2581O": 658,
  "\u25812010": 659,
  "\u2581international": 660,
  "\u2581madwar": 661,
  "\u2581both": 662,
  "\u2581cooperation": 663,
  "\u25812014": 664,
  "\u2581\u010berti": 665,
  "\u2581taking": 666,
  "\u2581o": 667,
  "\u2581tie\u0127u": 668,
  "importazzjoni": 669,
  "prodott": 670,
  "\u2581Dawn": 671,
  "\u2581(\"": 672,
  "\u2581action": 673,
  "\u2581programme": 674,
  "\u2581standards": 675,
  "\u2581applikabbli": 676,
  "\u258131": 677,
  "riskju": 678,
  "\u2581less": 679,
  "\u2581being": 680,
  "pajji\u017ci": 681,
  "\u2581\u0121iet": 682,
  "sena": 683,
  "\u2581Barra": 684,
  "\u2581general": 685,
  "\u2581inklu\u017c": 686,
  "\u2581framework": 687,
  "ic": 688,
  "\u2581access": 689,
  "\u2581relatati": 690,
  "\u2581service": 691,
  "g\u0127ajnuna": 692,
  "\u2581most": 693,
  "\u2581me\u0127tie\u0121": 694,
  "\u2581However": 695,
  "\u2581related": 696,
  "OJ": 697,
  "pazjenti": 698,
  "\u2581(4)": 699,
  "\u258119": 700,
  "K": 701,
  "\u2581J": 702,
  "\u2581inqas": 703,
  "to": 704,
  "ar": 705,
  "\u2581sal": 706,
  "\u2581include": 707,
  "kundizzjonijiet": 708,
  ".....": 709,
  "ma": 710,
  "\u2581thereof": 711,
  "\u2581using": 712,
  "aktar": 713,
  "\u2581xieraq": 714,
  "ja": 715,
  "\u0120U": 716,
  "\u2581against": 717,
  "settur": 718,
  "Komunit\u00e0": 719,
  "\u2581On": 720,
  "\u2581sector": 721,
  "skond": 722,
  "\u2581doctor": 723,
  "valur": 724,
  "\u2581systems": 725,
  "\u2581legali": 726,
  "\u25812007": 727,
  "\u2581end": 728,
  "\u2581snin": 729,
  "\u2581\u0121odda": 730,
  "\u2581cases": 731,
  "\u25812.": 732,
  "\u2581G\u0127al": 733,
  "\u2581jistabbilixxi": 734,
  "politika": 735,
  "\u2581place": 736,
  "\u258123": 737,
  "\u2581quddiem": 738,
  "\u2581different": 739,
  "\u25812012": 740,
  "dejta": 741,
  "\u2581above": 742,
  "\u2581health": 743,
  "produzzjoni": 744,
  "\u2581totali": 745,
  "\u258128": 746,
  "hova": 747,
  "\u2581rights": 748,
  "j": 749,
  "\u2581b\u017conn": 750,
  "\u2581jintu\u017ca": 751,
  "\u2581kkunsidrat": 752,
  "\u2581human": 753,
  "\u2581security": 754,
  "\u2581our": 755,
  "\u2581studies": 756,
  "test": 757,
  "\u2581trade": 758,
  "\u2581importanti": 759,
  "\u2581mar": 760,
  "\u2581procedures": 761,
  "awtorit\u00e0": 762,
  "\u2581finanzjarja": 763,
  "\u2581levels": 764,
  "ispejje\u017c": 765,
  "\u2581three": 766,
  "\u2581proposal": 767,
  "attivitajiet": 768,
  "\u2581G\u0127alhekk": 769,
  "\u2581effect": 770,
  "\u2581servizzi": 771,
  "\u2581months": 772,
  "sigurt\u00e0": 773,
  "id": 774,
  "di": 775,
  "Ewropa": 776,
  "ammont": 777,
  "\u2581Tel": 778,
  "\u2581increased": 779,
  "KEE": 780,
  "\u2581hi": 781,
  "\u2581mir": 782,
  "\u2581way": 783,
  "\u2581transport": 784,
  "EEC": 785,
  "\u2581livell": 786,
  ",\"": 787,
  "ek": 788,
  "\u2581stabbilit": 789,
  "\u2581sakemm": 790,
  "\u2581areas": 791,
  "\u2581injection": 792,
  "\u2581rate": 793,
  "qasam": 794,
  "\u2581pajji\u017ci": 795,
  "pro\u010bedura": 796,
  "vir": 797,
  "\u2581jkollhom": 798,
  "!": 799,
  "\u2581clinical": 800,
  "\u2581body": 801,
  "\u2581reference": 802,
  "\u2581God": 803,
  "\u2581jing\u0127ata": 804,
  "\u2581ba\u017ci": 805,
  "\u2581ting\u0127ata": 806,
  "\u2581g\u0127ajnuna": 807,
  "us": 808,
  "\u2581possibbli": 809,
  "\u2581impact": 810,
  "\u2581due": 811,
  "\u2581kuljum": 812,
  "\u2581additional": 813,
  "\u2581group": 814,
  "\u2581June": 815,
  "\u2581addizzjonali": 816,
  "\u2581amended": 817,
  "\u25813.": 818,
  "\u2581laid": 819,
  "\u258140": 820,
  "\u2581process": 821,
  "o\u0127ra": 822,
  "\u2581days": 823,
  "\u2581active": 824,
  "\u2581g\u0127alhekk": 825,
  "\u2581reported": 826,
  "\u2581AND": 827,
  "\u2581price": 828,
  "\u258126": 829,
  "\u2581W": 830,
  "\u2581Ma": 831,
  "\u2581tnaqqis": 832,
  "\u2581darba": 833,
  "partijiet": 834,
  "KESE": 835,
  "\u2581prodott": 836,
  "\u2581To": 837,
  "ni": 838,
  "\u2581sinifikanti": 839,
  "\u2581what": 840,
  "\u0121did": 841,
  "\u2581Huwa": 842,
  "\u25812006": 843,
  "\u2581view": 844,
  "\u2581EESC": 845,
  "\u258127": 846,
  "\u2581barra": 847,
  "\u2581study": 848,
  "\u2581interest": 849,
  "\u25811/": 850,
  "trasport": 851,
  "\u25815.": 852,
  "\u2581quality": 853,
  "li\u0121i": 854,
  "ba\u017ci": 855,
  "\u2581Ewropej": 856,
  "\u2581EEA": 857,
  "tieni": 858,
  "navir": 859,
  "\u2581kummer\u010bjali": 860,
  "\u2581investment": 861,
  "\u2581pursuant": 862,
  "\u2581life": 863,
  "Implimentazzjoni": 864,
  "\u2581Implement": 865,
  "\u2581im": 866,
  "\u2581single": 867,
  "\u2581long": 868,
  "sajd": 869,
  "\u2581simili": 870,
  "d\u0127ul": 871,
  "ajru": 872,
  "\u2581help": 873,
  "\u2581results": 874,
  "\u2581What": 875,
  "istituzzjonijiet": 876,
  "drittijiet": 877,
  "\u2581form": 878,
  "\u2581effective": 879,
  "ate": 880,
  "th": 881,
  "\u258129": 882,
  "\u2581filwaqt": 883,
  "\u2581institutions": 884,
  "\u2581referenza": 885,
  "\u2581fihom": 886,
  "\u2581change": 887,
  "programm": 888,
  "\u2581how": 889,
  "\u2581sezzjoni": 890,
  "v": 891,
  "ers": 892,
  "\u25816.": 893,
  "\u2581right": 894,
  "\u2581terzi": 895,
  "\u2581Court": 896,
  "jew": 897,
  "\u2581food": 898,
  "\u2581January": 899,
  "\u2581\u0120unju": 900,
  "it": 901,
  "\u2581own": 902,
  "ikel": 903,
  "\u2581Do": 904,
  "very": 905,
  "\u2581important": 906,
  "z": 907,
  "\u2581japplika": 908,
  "\u2581purposes": 909,
  "\u2581industry": 910,
  "\u2581riskju": 911,
  "\u2581water": 912,
  "\u2581request": 913,
  "\u2581goods": 914,
  "):": 915,
  "6": 916,
  "\u2581opinion": 917,
  "\u2581jag\u0127mlu": 918,
  "\u2581Articles": 919,
  "\u2581post": 920,
  "Qorti": 921,
  "\u2581Where": 922,
  "\u2581carried": 923,
  "\u2581potential": 924,
  "\u2581agreement": 925,
  "ir": 926,
  "\u2581objectives": 927,
  "\u2581k": 928,
  "\u2581fiha": 929,
  "\u2581sistema": 930,
  "\u2581IV": 931,
  "\u2581These": 932,
  "\u2581legislation": 933,
  "protezzjoni": 934,
  "\u2581tfisser": 935,
  "\u2581milli": 936,
  "ova": 937,
  "\u2581defined": 938,
  "\u2581million": 939,
  "rata": 940,
  "\u2581July": 941,
  "\u2581business": 942,
  "\u2581capacity": 943,
  "\u2581spe\u010bjali": 944,
  "\u2581vehicle": 945,
  "\u2581\u017cew\u0121": 946,
  "\u2581second": 947,
  "\u2581did": 948,
  "\u2581containing": 949,
  "\u2581Other": 950,
  "\u2581persons": 951,
  "......": 952,
  "ra": 953,
  "\u2581co": 954,
  "\u2581\u017c": 955,
  "\u2581credit": 956,
  "\u2581person": 957,
  "\u2581full": 958,
  "inqas": 959,
  "\u2581Jannar": 960,
  "industrija": 961,
  "\u2581japplikaw": 962,
  "\u2581establishing": 963,
  "\u2581criteria": 964,
  "\u2581solution": 965,
  "\u2581October": 966,
  "\u2581resources": 967,
  "an": 968,
  "\u2581mhumiex": 969,
  "\u2581administration": 970,
  "annimali": 971,
  "post": 972,
  "Artikoli": 973,
  "\u2581jinkludu": 974,
  "\u2581weight": 975,
  "_": 976,
  "\u2581medi\u010binali": 977,
  "\u258160": 978,
  "\u2581significant": 979,
  "\u2581jie\u0127du": 980,
  "proposta": 981,
  "\u2581research": 982,
  "ne": 983,
  "V": 984,
  "\u2581tip": 985,
  "\u2581existing": 986,
  "\u2581addition": 987,
  "re": 988,
  "\u2581having": 989,
  "\u2581replaced": 990,
  "\u25812,": 991,
  "\u2581jum": 992,
  "\u2581programmes": 993,
  "pajji\u017c": 994,
  "\u2581instruments": 995,
  "\u017cew\u0121": 996,
  "qafas": 997,
  "\u2581recommended": 998,
  "hekk": 999,
  "\u2581list": 1000,
  "Il": 1001,
  "\u2581i\u010b": 1002,
  "\u2581specified": 1003,
  "\u2581demm": 1004,
  "\u2581tliet": 1005,
  "\u25812015": 1006,
  "\u2581=": 1007,
  "kura": 1008,
  "\u2581monitoring": 1009,
  "\u2581Journal": 1010,
  "\u2581ex": 1011,
  "\u010bi": 1012,
  "\u2581May": 1013,
  "\u2581similar": 1014,
  "\u2581result": 1015,
  "\u2581tablets": 1016,
  "\u2581Brussels": 1017,
  "\u2581relating": 1018,
  "\u2581side": 1019,
  "ol": 1020,
  "\u2581current": 1021,
  "W": 1022,
  "\u2581kontroll": 1023,
  "\u2581lit": 1024,
  "\u2581\u0120e": 1025,
  "O": 1026,
  "approvazzjoni": 1027,
  "\u2581jintu\u017caw": 1028,
  "ka": 1029,
  "\u2581children": 1030,
  "\u2581according": 1031,
  "\u2581Agency": 1032,
  "\u2581regards": 1033,
  "\u2581companies": 1034,
  "ri": 1035,
  "\u2581Lulju": 1036,
  "\u2581granted": 1037,
  "rapport": 1038,
  "U": 1039,
  "\u2581miljun": 1040,
  "AL": 1041,
  "\u2581responsabbli": 1042,
  "\u2581g\u0127olja": 1043,
  "\u2581internal": 1044,
  "\u25812004": 1045,
  "\u2581acid": 1046,
  "\u017cona": 1047,
  "\u2581medicinal": 1048,
  "\u2581Billi": 1049,
  "kapa\u010bit\u00e0": 1050,
  "\u2581growth": 1051,
  "\u2581President": 1052,
  "\u2581March": 1053,
  "\u2581xierqa": 1054,
  "\u2581ebda": 1055,
  "\u2581until": 1056,
  "\u2581equipment": 1057,
  "\u2581entry": 1058,
  "\u2581tag\u0127na": 1059,
  "\u2581tabib": 1060,
  "\u2581disease": 1061,
  "\u2581included": 1062,
  "din": 1063,
  "\u2581plan": 1064,
  "\u2581...": 1065,
  "\u2581e\u017cistenti": 1066,
  "\u2581contains": 1067,
  "\u2581mog\u0127tija": 1068,
  "\u2581maximum": 1069,
  "\u2581Official": 1070,
  "\u2581submitted": 1071,
  "\u2581a\u0127jar": 1072,
  "\u2581Kull": 1073,
  "prezzijiet": 1074,
  "\u2581applikazzjoni": 1075,
  "\u2581effetti": 1076,
  "\u2581implementing": 1077,
  "\u2581og\u0127la": 1078,
  "\u2581purpose": 1079,
  "\u2581pubbliku": 1080,
  "\u2581\u0127in": 1081,
  "\u2581capital": 1082,
  "el": 1083,
  "up": 1084,
  "\u2581while": 1085,
  "\u2581authorisation": 1086,
  "\u2581terms": 1087,
  "\u2581because": 1088,
  "\u2581Republic": 1089,
  "\u2581progress": 1090,
  "\u2581euro": 1091,
  "\u2581Ottubru": 1092,
  "\u2581final": 1093,
  "\u2581lokali": 1094,
  "gt": 1095,
  "\u2581di\u0121\u00e0": 1096,
  "\u2581tali": 1097,
  "\u2581members": 1098,
  "\u2581payment": 1099,
  "\u2581local": 1100,
  "President": 1101,
  "lu": 1102,
  "Repubblika": 1103,
  "\u2581When": 1104,
  "\u2581directly": 1105,
  "\u2581Stati": 1106,
  "de\u010bi\u017cjoni": 1107,
  "do\u017ca": 1108,
  "pro\u010bess": 1109,
  "\u2581g\u0127andek": 1110,
  "\u2581enter": 1111,
  "\u2581xhur": 1112,
  "\u2581persuni": 1113,
  "\u2581Uffi\u010bjali": 1114,
  "\u2581below": 1115,
  "\u2581power": 1116,
  "\u2581covered": 1117,
  "\u2581attwali": 1118,
  "\u2581received": 1119,
  "\u2581annwali": 1120,
  "\u2581injezzjoni": 1121,
  "\u2581training": 1122,
  "\u2581<": 1123,
  "\u2581example": 1124,
  "\u2581another": 1125,
  "\u2581parties": 1126,
  "valutazzjoni": 1127,
  "ilma": 1128,
  "\u2581needs": 1129,
  "\u2581November": 1130,
  "\u2581\u010b": 1131,
  "\u2581Bank": 1132,
  "\u2581Brussell": 1133,
  "numru": 1134,
  "\u2581actions": 1135,
  "\u0120urnal": 1136,
  "\u2581administrative": 1137,
  "\u2581\u017cieda": 1138,
  "5": 1139,
  "\u2581Kif": 1140,
  "\u2581treated": 1141,
  "\u2581bis": 1142,
  "\u2581Sabiex": 1143,
  "dritt": 1144,
  "\u2581already": 1145,
  "\u2581[1],": 1146,
  "tul": 1147,
  "um": 1148,
  "\u2581ssir": 1149,
  "\u2581listed": 1150,
  "\u2581budget": 1151,
  "\u2581insulin": 1152,
  "\u2581approval": 1153,
  "\u2581projects": 1154,
  "\u2581activity": 1155,
  "ri\u017cultati": 1156,
  "\u2581politika": 1157,
  "\u2581points": 1158,
  "\u2581situation": 1159,
  "\u2581ix": 1160,
  "\u2581review": 1161,
  "\u2581effett": 1162,
  "art": 1163,
  "ation": 1164,
  "\u2581me": 1165,
  "\u2581measure": 1166,
  "\u25810": 1167,
  "pro\u010beduri": 1168,
  "\u2581Authority": 1169,
  "zzjoni": 1170,
  "\u2581line": 1171,
  "\u2581ambjentali": 1172,
  "\u2581azzjoni": 1173,
  "\u2581An": 1174,
  "\u2581intended": 1175,
  "\u2581annual": 1176,
  "\u0121estjoni": 1177,
  "ible": 1178,
  "\u2581even": 1179,
  "\u2581applied": 1180,
  "\u2581either": 1181,
  "\u2581cost": 1182,
  "\u2581kollu": 1183,
  "\u2581Marzu": 1184,
  "\u2581individual": 1185,
  "\u2581stabbilita": 1186,
  "\u2581imports": 1187,
  "parti": 1188,
  "\u2581pubbli\u010bi": 1189,
  "\u2581fin": 1190,
  "\u2581jipprovdi": 1191,
  "\u2581future": 1192,
  "\u2581policies": 1193,
  "\u2581appo\u0121\u0121": 1194,
  "\u2581working": 1195,
  "\u2581finali": 1196,
  "\u2581responsible": 1197,
  "isem": 1198,
  "\u2581prices": 1199,
  "\u2581associated": 1200,
  "\u2581trattament": 1201,
  "\u2581There": 1202,
  "organizzazzjoni": 1203,
  "\u2581changes": 1204,
  "\u2581direttament": 1205,
  "\u2581rigward": 1206,
  "\u2581performance": 1207,
  "\u2581air": 1208,
  "\u2581higher": 1209,
  "\u2581company": 1210,
  "\u2581Skont": 1211,
  "\u2581jkunx": 1212,
  "\u2581many": 1213,
  "\u2581fi\u017c": 1214,
  "\u25810.": 1215,
  "ide": 1216,
  "\u2581sustanzi": 1217,
  "\u2581jipprovdu": 1218,
  "term": 1219,
  "\u2581di": 1220,
  "\u2581cross": 1221,
  "\u2581ewlenin": 1222,
  "\u2581low": 1223,
  "assi": 1224,
  "\u2581United": 1225,
  "\u2581mat": 1226,
  "\u2581main": 1227,
  "pine": 1228,
  "prezz": 1229,
  "pi\u017c": 1230,
  "\u2581Mejju": 1231,
  "\u2581minnhom": 1232,
  "\u2581animal": 1233,
  "\u2581proposed": 1234,
  "\u2581funds": 1235,
  "\u2581environmental": 1236,
  "bejg\u0127": 1237,
  "\u2581position": 1238,
  "\u2581therapy": 1239,
  "\u2581(5)": 1240,
  "dawl": 1241,
  "\u2581us": 1242,
  "\u2581ji\u017cguraw": 1243,
  "\u2581perjodu": 1244,
  "ine": 1245,
  "\u2581dejjem": 1246,
  "\u2581bir": 1247,
  "\u2581tekni\u010bi": 1248,
  "impatt": 1249,
  "\u2581inti": 1250,
  "\u2581good": 1251,
  "\u2581Novembru": 1252,
  "fatt": 1253,
  "sistemi": 1254,
  "\u2581present": 1255,
  "kooperazzjoni": 1256,
  "\u2581individwali": 1257,
  "\u2581values": 1258,
  "\u2581added": 1259,
  "sus": 1260,
  "\u2581fost": 1261,
  "\u2581daily": 1262,
  "\u2581All": 1263,
  "\u2581studji": 1264,
  "Awtorit\u00e0": 1265,
  "\u2581soluzzjoni": 1266,
  "\u2581pazjent": 1267,
  "\u2581kellhom": 1268,
  "\u2581combination": 1269,
  "\u2581mad": 1270,
  "\u2581mas": 1271,
  "\u2581key": 1272,
  "\u2581limited": 1273,
  "kuntest": 1274,
  "\u2581approach": 1275,
  "\u2581tag\u0127mel": 1276,
  "ach": 1277,
  "\u2581They": 1278,
  "2,": 1279,
  "\u2581lura": 1280,
  "\u2581marbuta": 1281,
  "\u2581since": 1282,
  "\u2581Co": 1283,
  "\u2581approved": 1284,
  "able": 1285,
  "\u2581benefit": 1286,
  "\u258190": 1287,
  "ati": 1288,
  "\u2581free": 1289,
  "A\u0121enzija": 1290,
  "tnaqqis": 1291,
  "\u2581mil": 1292,
  "\u2581cannot": 1293,
  "\u2581minimum": 1294,
  "\u2581Fi": 1295,
  "\u2581markets": 1296,
  "\u2581weeks": 1297,
  "\u2581bi\u017c\u017cejjed": 1298,
  "\u2581name": 1299,
  "\u2581substance": 1300,
  "\u2581Komuni": 1301,
  "\u2581animals": 1302,
  "\u2581jsir": 1303,
  "\u2581material": 1304,
  "\u2581September": 1305,
  "\u2581reactions": 1306,
  "\u2581assets": 1307,
  "\u2581re\u0121jonali": 1308,
  "\u2581analysis": 1309,
  "\u2581regional": 1310,
  "\u25812005": 1311,
  "\u2581inter": 1312,
  "\u2581ECB": 1313,
  "\u2581regoli": 1314,
  "\u2581competition": 1315,
  "\u2581medicine": 1316,
  "artan": 1317,
  "\u2581light": 1318,
  "\u2581amending": 1319,
  "te": 1320,
  "kontroll": 1321,
  "as": 1322,
  "le": 1323,
  "\u2581\u0121did": 1324,
  "\u25812016": 1325,
  "\u2581field": 1326,
  "\u2581assistance": 1327,
  "\u2581How": 1328,
  "\u2581last": 1329,
  "kummer\u010b": 1330,
  "\u2581better": 1331,
  "\u2581jag\u0127ti": 1332,
  "\u2581akbar": 1333,
  "\u2581bodies": 1334,
  "dak": 1335,
  "\u2581observed": 1336,
  "la": 1337,
  "\u2581abba\u017ci": 1338,
  "\u2581special": 1339,
  "kwalit\u00e0": 1340,
  "\u2581At": 1341,
  "\u2581IU": 1342,
  "\u2581persuna": 1343,
  "aw": 1344,
  "\u2581self": 1345,
  "q": 1346,
  "de": 1347,
  "\u2581partijiet": 1348,
  "kg": 1349,
  "\u2581follows": 1350,
  "\u2581v": 1351,
  "\u2581hours": 1352,
  "opinjoni": 1353,
  "\u2581operations": 1354,
  "\u2581Part": 1355,
  "\u2581Bi": 1356,
  "\u2581g\u0127an": 1357,
  "\u2581exposure": 1358,
  "\u2581exchange": 1359,
  "\u2581fishing": 1360,
  "\u2581reduce": 1361,
  "na\u0127a": 1362,
  "\u2581\u0127sara": 1363,
  "emissjonijiet": 1364,
  "Parti": 1365,
  "\u2581stipulati": 1366,
  "\u2581organisations": 1367,
  "\u2581compliance": 1368,
  "\u2581project": 1369,
  "\u2581ftit": 1370,
  "\u258180": 1371,
  "\u2581continue": 1372,
  "\u2581man": 1373,
  "\u2581Regolament": 1374,
  "\u017bEE": 1375,
  "\u2581operation": 1376,
  "\u2581Re": 1377,
  "eu": 1378,
  "\u2581together": 1379,
  "\u2581bla": 1380,
  "\u2581compared": 1381,
  "\u2581un": 1382,
  "\u2581content": 1383,
  "\u2581import": 1384,
  "\u2581vehicles": 1385,
  "\u2581regulatory": 1386,
  "ri\u017corsi": 1387,
  "ex": 1388,
  "\u2581Economic": 1389,
  "g\u0127oti": 1390,
  "kriterji": 1391,
  "\u2581investigation": 1392,
  "\u2581globali": 1393,
  "tal": 1394,
  "\u2581response": 1395,
  "\u2581obligations": 1396,
  "ba\u0121it": 1397,
  "\u2581EUROPEAN": 1398,
  "\u2581reduction": 1399,
  "azzjonijiet": 1400,
  "\u017cmien": 1401,
  "ji": 1402,
  "\u2581provides": 1403,
  "\u2581then": 1404,
  "\u2581substances": 1405,
  "\u2581like": 1406,
  "\u2581\u20ac": 1407,
  "\u2581alfa": 1408,
  "\u25813,": 1409,
  "ve": 1410,
  "\u258136": 1411,
  "\u2581agricultural": 1412,
  "forma": 1413,
  "\u2581expenditure": 1414,
  "\u2581emendat": 1415,
  "for": 1416,
  "ambjent": 1417,
  "\u2581supply": 1418,
  "\u2581Functioning": 1419,
  "\u2581Section": 1420,
  "\u2581jinkludi": 1421,
  "1/": 1422,
  "ju": 1423,
  "livelli": 1424,
  "\u2581code": 1425,
  "\u2581xahar": 1426,
  "\u2581Alla": 1427,
  "\u2581tag\u0127rif": 1428,
  "\u2581bid": 1429,
  "\u2581insulina": 1430,
  "lista": 1431,
  "\u2581g\u0127alihom": 1432,
  "\u2581CYP": 1433,
  "\u2581every": 1434,
  "\u2581Kingdom": 1435,
  "\u25812000": 1436,
  "Funzjonament": 1437,
  "\u2581age": 1438,
  "\u2581tul": 1439,
  "\u2581known": 1440,
  "\u2581Al": 1441,
  "\u2581see": 1442,
  "\u2581publication": 1443,
  "\u2581employment": 1444,
  "\u2581gas": 1445,
  "\u2581state": 1446,
  "\u2581Settembru": 1447,
  "a\u010b\u010bess": 1448,
  "ali": 1449,
  "\u2581gwida": 1450,
  "\u2581objective": 1451,
  "\u2581address": 1452,
  "\u2581role": 1453,
  "\u2581origin": 1454,
  "\u2581finanzjarju": 1455,
  "\u2581Data": 1456,
  "st": 1457,
  "\u2581\u017cgurat": 1458,
  "\u2581\u0127dan": 1459,
  "\u2581g\u0127ax": 1460,
  "\u2581pressure": 1461,
  "\u2581\u0121img\u0127a": 1462,
  "J": 1463,
  "\u2581bit": 1464,
  "\u2581tipprovdi": 1465,
  "\u2581found": 1466,
  "nuqqas": 1467,
  "\u2581producers": 1468,
  "\u2581provision": 1469,
  "\u2581le": 1470,
  "X": 1471,
  "\u2581subparagraph": 1472,
  "\u2581sub": 1473,
  "\u2581environment": 1474,
  "\u2581once": 1475,
  "\u2581interessati": 1476,
  "\u2581Ta": 1477,
  "\u2581medicines": 1478,
  "ku": 1479,
  "\u2581materials": 1480,
  "\u2581sostenibbli": 1481,
  "\u2581a\u010b\u010bess": 1482,
  "po\u017cizzjoni": 1483,
  "g\u0127anijiet": 1484,
  "\u2581o\u0121\u0121etti": 1485,
  "\u2581sigurt\u00e0": 1486,
  "sitwazzjoni": 1487,
  "\u2581February": 1488,
  "\u2581imsemmi": 1489,
  "ur": 1490,
  "\u2581Mhux": 1491,
  "appo\u0121\u0121": 1492,
  "da": 1493,
  "\u2581open": 1494,
  "\u2581basic": 1495,
  "\u2581prin\u010bipali": 1496,
  "\u2581allow": 1497,
  "\u2581regarding": 1498,
  "\u2581risks": 1499,
  "\u2581natural": 1500,
  "\u2581Frar": 1501,
  "\u2581authorised": 1502,
  "\u2581\u010bivili": 1503,
  "\u2581average": 1504,
  "\u2581cover": 1505,
  "\u2581ekonomi\u010bi": 1506,
  "\u25812002": 1507,
  "\u2581evidence": 1508,
  "\u2581jag\u0127mel": 1509,
  "\u25811).": 1510,
  "\u2581acts": 1511,
  "\u00f9": 1512,
  "grupp": 1513,
  "\u2581reporting": 1514,
  "\u2581jing\u0127ataw": 1515,
  "\u2581experience": 1516,
  "\u2581trid": 1517,
  "\u2581h": 1518,
  "\u2581my": 1519,
  "\u2581medi\u010bini": 1520,
  "\u2010": 1521,
  "min": 1522,
  "\u2581tinkludi": 1523,
  "\u2581prior": 1524,
  "8": 1525,
  "\u2581adopt": 1526,
  "\u258175": 1527,
  "\u2581overall": 1528,
  "\u2581\u0120enerali": 1529,
  "\u2581jag\u0127tu": 1530,
  "\u2581greater": 1531,
  "\u258148": 1532,
  "\u2581[1]": 1533,
  "tkabbir": 1534,
  "\u2581attiva": 1535,
  "iet": 1536,
  "\u2581ekonomika": 1537,
  "\u2581issues": 1538,
  "\u2581expected": 1539,
  "\u2581He": 1540,
  "\u2581improve": 1541,
  "\u2581sodium": 1542,
  "\u2581Chapter": 1543,
  "\u2581pubblika": 1544,
  "\u2581normali": 1545,
  "\u2581sekondarji": 1546,
  "\u2581essenzjali": 1547,
  "\u2581private": 1548,
  "\u2581tajjeb": 1549,
  "\u2581300": 1550,
  "\u2581punt": 1551,
  "7": 1552,
  "\u2581context": 1553,
  "\u2581large": 1554,
  "-31": 1555,
  "\u2581external": 1556,
  "\u2581scope": 1557,
  "\u2581Common": 1558,
  "\u2581principles": 1559,
  "\u2581pressjoni": 1560,
  "\u2581\u0121ilda": 1561,
  "\u2581attivitajiet": 1562,
  "os": 1563,
  "\u2581By": 1564,
  "pubblikazzjoni": 1565,
  "\u2581Therefore": 1566,
  "\u2581give": 1567,
  "\u2581pajji\u017c": 1568,
  "\u2581direct": 1569,
  "\u2581small": 1570,
  "\u2581issued": 1571,
  "awtorizzazzjoni": 1572,
  "im": 1573,
  "\u2581published": 1574,
  "\u010bittadini": 1575,
  "\u2581imma": 1576,
  "taxxa": 1577,
  "\u2581medi\u010bina": 1578,
  "\u2581able": 1579,
  "\u2581parts": 1580,
  "\u2581groups": 1581,
  "\u2581organizzazzjoni": 1582,
  "\u2581General": 1583,
  "\u2581livelli": 1584,
  "\u2581tu\u017ca": 1585,
  "bidu": 1586,
  "\u25812020": 1587,
  "\u2581tfal": 1588,
  "ri\u010berka": 1589,
  "2/": 1590,
  "\u2581contribution": 1591,
  "\u2581documents": 1592,
  "\u2581among": 1593,
  "\u2581contract": 1594,
  "euro": 1595,
  "\u2581You": 1596,
  "e\u017c": 1597,
  "\u2581society": 1598,
  "\u2581tag\u0127ti": 1599,
  "\u2581decisions": 1600,
  "\u2581000": 1601,
  "\u2581document": 1602,
  "\u2581agreements": 1603,
  "\u2581sustainable": 1604,
  "\u2581world": 1605,
  "kontenut": 1606,
  "\u2581identified": 1607,
  "\u2581become": 1608,
  "\u2581xog\u0127ol": 1609,
  "riskji": 1610,
  "\u2581evaluation": 1611,
  "\u2581je\u0127tie\u0121": 1612,
  "\u2581Mag\u0127mul": 1613,
  "\u2581dejta": 1614,
  "\u2581konformi": 1615,
  "\u2581\u0120es": 1616,
  "\u2581education": 1617,
  "\u2581Fund": 1618,
  "\u2581emissions": 1619,
  "\u2581Whereas": 1620,
  "ion": 1621,
  "\u2581g\u0127oli": 1622,
  "\u2581pro": 1623,
  "\u2581adverse": 1624,
  "pjan": 1625,
  "and": 1626,
  "lt": 1627,
  "\u2581Joint": 1628,
  "\u2581principle": 1629,
  "\u2581tajba": 1630,
  "\u2581consumption": 1631,
  "finanzjament": 1632,
  "g\u0127add": 1633,
  "\u2581\u03bc": 1634,
  "\u2581>": 1635,
  "europa": 1636,
  "kompetizzjoni": 1637,
  "\u2581ka\u017c": 1638,
  "\u2581b\u0127all": 1639,
  "effetti": 1640,
  "le\u0121i\u017clazzjoni": 1641,
  "\u2581200": 1642,
  "termini": 1643,
  "\u2581symptoms": 1644,
  "rakkomandazzjoni": 1645,
  "\u2581Table": 1646,
  "B\u010aE": 1647,
  "demm": 1648,
  "ka\u017cijiet": 1649,
  "\u2581best": 1650,
  "investiment": 1651,
  "\u2581protezzjoni": 1652,
  "\u25812003": 1653,
  "\u2581put": 1654,
  "\u2581needed": 1655,
  "\u2581severe": 1656,
  "\u2581benefits": 1657,
  "trattament": 1658,
  "\u2581involved": 1659,
  "\u2581strategy": 1660,
  "kumpaniji": 1661,
  "\u2581still": 1662,
  "sikurezza": 1663,
  "\u2581designed": 1664,
  "\u2581network": 1665,
  "\u2581valutazzjoni": 1666,
  "\u2581reduced": 1667,
  "se": 1668,
  "\u2581tintu\u017ca": 1669,
  "\u2581\u0121dida": 1670,
  "\u2581disorders": 1671,
  "\u2581Done": 1672,
  "\u2581imsemmija": 1673,
  "\u2581diversi": 1674,
  "\u2581civil": 1675,
  "\u2581lower": 1676,
  "\u2581u\u017cati": 1677,
  "\u2581him": 1678,
  "\u2581Malta": 1679,
  "\u2581staff": 1680,
  "amp": 1681,
  "vettura": 1682,
  "\u2581require": 1683,
  "\u2581act": 1684,
  "\u2581patient": 1685,
  "\u2581\u010bar": 1686,
  "\u2581Unit": 1687,
  "\u2581term": 1688,
  "\u2581Uniti": 1689,
  "\u2581normal": 1690,
  "\u2581major": 1691,
  "\u2581*": 1692,
  "\u2581administered": 1693,
  "konsumaturi": 1694,
  "so\u010bjet\u00e0": 1695,
  "\u2581providing": 1696,
  "\u2581sar": 1697,
  "ijiet": 1698,
  "\u2581nies": 1699,
  "\u2581intern": 1700,
  "\u2581jkollu": 1701,
  "\u2581clear": 1702,
  "\u258132": 1703,
  "\u2581scheme": 1704,
  "\")": 1705,
  "\u2581waste": 1706,
  "persuni": 1707,
  "punti": 1708,
  "\u2581indicated": 1709,
  "esportazzjoni": 1710,
  "\u2581institution": 1711,
  "\u2581meeting": 1712,
  "\u2581funding": 1713,
  "\u2581subparagrafu": 1714,
  "\u258145": 1715,
  "programmi": 1716,
  "\u2581share": 1717,
  "\u2581range": 1718,
  "ity": 1719,
  "\u2581ANNEX": 1720,
  "ER": 1721,
  "\u2581renal": 1722,
  "\u2581serious": 1723,
  "\u2581(6)": 1724,
  "\u2581citizens": 1725,
  "\u2581problems": 1726,
  "\u2581transfer": 1727,
  "\u2581ju\u017caw": 1728,
  "ru": 1729,
  "1,": 1730,
  "un": 1731,
  "3,": 1732,
  "\u2581Fejn": 1733,
  "\u0127in": 1734,
  "\u0127ajja": 1735,
  "10": 1736,
  "\u2581financing": 1737,
  "\u2581kbira": 1738,
  "\u2581tistabbilixxi": 1739,
  "\u2581organisation": 1740,
  "bniedem": 1741,
  "\u2581operators": 1742,
  "\u2581ekonomiku": 1743,
  "\u2581upon": 1744,
  "\u2581determined": 1745,
  "\u2581ANNESS": 1746,
  "\u2581[2]": 1747,
  "\u2581function": 1748,
  "\u2581jid\u0127ol": 1749,
  "valuri": 1750,
  "Sur": 1751,
  "\u2581baxx": 1752,
  "\u2581issue": 1753,
  "\u2581fully": 1754,
  "tabib": 1755,
  "\u2581sieg\u0127a": 1756,
  "\u2581massimu": 1757,
  "\u2581nuqqas": 1758,
  "\u2581THIS": 1759,
  "\u2581relation": 1760,
  "servizz": 1761,
  "\u2581pain": 1762,
  "ml": 1763,
  "\u2581FOR": 1764,
  "\u2581We": 1765,
  "\u2581s\u0127i\u0127": 1766,
  "\u2581loss": 1767,
  "\u2581electronic": 1768,
  "\u2581met": 1769,
  "\u2581event": 1770,
  "\u2581held": 1771,
  "\u2581\u010bentrali": 1772,
  "\u2581fact": 1773,
  "\u2581territory": 1774,
  "\u2581several": 1775,
  "\u2581VI": 1776,
  "\u2581Protocol": 1777,
  "\u2581method": 1778,
  "\u2581economy": 1779,
  "\u2581numru": 1780,
  "\u2581skin": 1781,
  "klassifikazzjoni": 1782,
  "sa": 1783,
  "\u2581\u00b0": 1784,
  "\u2581150": 1785,
  "membri": 1786,
  "\u2581times": 1787,
  "\u2581Mr": 1788,
  "\u010b": 1789,
  "\u2581reports": 1790,
  "\u2581u\u0121ig\u0127": 1791,
  "\u2581binding": 1792,
  "\u2581naturali": 1793,
  "\u2581Central": 1794,
  "kull": 1795,
  "swieq": 1796,
  "\u2581infrastructure": 1797,
  "\u2581kreditu": 1798,
  "\u2581site": 1799,
  "\u0127tie\u0121a": 1800,
  "\u2581EC": 1801,
  "\u2581nature": 1802,
  "\u2581pillola": 1803,
  "\u2581klini\u010bi": 1804,
  "\u2581sew": 1805,
  "\u2581species": 1806,
  "\u2581studju": 1807,
  "\u2581ADOPTE": 1808,
  "ive": 1809,
  "\u2581Social": 1810,
  "\u2581HAS": 1811,
  "\u2581anqas": 1812,
  "\u2581meet": 1813,
  "\u2581de\u010bi\u017cjoni": 1814,
  "ist": 1815,
  "50": 1816,
  "\u2581lead": 1817,
  "\u2581kkunsidra": 1818,
  "xi": 1819,
  "\u2581grupp": 1820,
  "\u2581tag\u0127mir": 1821,
  "du": 1822,
  "prin\u010bipju": 1823,
  "ness": 1824,
  "\u2581arrangements": 1825,
  "\u2581tard": 1826,
  "\u2581making": 1827,
  "\u2581adottati": 1828,
  "produtturi": 1829,
  "\u2581ji\u0121ifieri": 1830,
  "\u017cieda": 1831,
  "\u2581contact": 1832,
  "\u2581entity": 1833,
  "one": 1834,
  "konsum": 1835,
  "arja": 1836,
  "\u2581With": 1837,
  "\u2581status": 1838,
  "\u2581Parties": 1839,
  "\u2581entities": 1840,
  "Q": 1841,
  "\u258135": 1842,
  "\u25814,": 1843,
  "\u2581communication": 1844,
  "\u2581comply": 1845,
  "\u2581terapija": 1846,
  "\u2581shown": 1847,
  "\u2581develop": 1848,
  "\u2581g\u0127add": 1849,
  "\u2581women": 1850,
  "\u2581saru": 1851,
  "effett": 1852,
  "talba": 1853,
  "tra": 1854,
  "\u2581member": 1855,
  "including": 1856,
  "\u2581essential": 1857,
  "\u2581limit": 1858,
  "\u2581Un": 1859,
  "\u2581mard": 1860,
  "obbligi": 1861,
  "\u2581kundizzjonijiet": 1862,
  "\u2581nett": 1863,
  "\u2581efficiency": 1864,
  "\u2581prevent": 1865,
  "yl": 1866,
  "\u2581g\u0127a\u017c": 1867,
  "\u2581particularly": 1868,
  "\u2581described": 1869,
  "\u2581detailed": 1870,
  "per": 1871,
  "\u25817.": 1872,
  "\u2581obtained": 1873,
  "\u2581exceeding": 1874,
  "territorju": 1875,
  "\u2581concluded": 1876,
  "\u2581ka\u017cijiet": 1877,
  "est": 1878,
  "\u2581personal": 1879,
  "\u2581dispo\u017cizzjoni": 1880,
  "\u2581jitqiesu": 1881,
  "\u2581Li": 1882,
  "amministrazzjoni": 1883,
  "\u2581operational": 1884,
  "\u2581EWROPEA": 1885,
  "\u2581political": 1886,
  "\u2581volume": 1887,
  "\u2581jkollha": 1888,
  "of": 1889,
  "\u017coni": 1890,
  "\u2581Financial": 1891,
  "\u2581workers": 1892,
  "Fond": 1893,
  "\u2581investiment": 1894,
  "investigazzjoni": 1895,
  "\u2581establish": 1896,
  "\u2581now": 1897,
  "\u2581customs": 1898,
  "\u2581affect": 1899,
  "adozzjoni": 1900,
  "\u2581France": 1901,
  "\u2581events": 1902,
  "\u2581\u0127lief": 1903,
  "Y": 1904,
  "\u2581payments": 1905,
  "\u2581Programme": 1906,
  "\u2581ftehim": 1907,
  "\u2581innovation": 1908,
  "\u2581Convention": 1909,
  "ant": 1910,
  "Renju": 1911,
  "\u2581spe\u010bifiku": 1912,
  "\u2581whole": 1913,
  "\u2581Biex": 1914,
  "\u2581export": 1915,
  "\u2581medju": 1916,
  "\u2581g\u0127andux": 1917,
  "\u2581jridu": 1918,
  "\u2581ma\u0127suba": 1919,
  "\u017ci": 1920,
  "\u2581elenkati": 1921,
  "\u2581paid": 1922,
  "\u2581Min\u0127abba": 1923,
  "\u258134": 1924,
  "\u2581issa": 1925,
  "oqsma": 1926,
  "\u2581operating": 1927,
  "\u2581G\u0127aldaqstant": 1928,
  "\u2581tapplika": 1929,
  "\u258184": 1930,
  "\u2581insurance": 1931,
  "\u2581vessels": 1932,
  "\u258138": 1933,
  "\u2581contracts": 1934,
  "\u2581ja\u0127dmu": 1935,
  "Protokoll": 1936,
  "\u2581qeg\u0127din": 1937,
  "\u2581talba": 1938,
  "\u2581manufacturer": 1939,
  "bbja": 1940,
  "\u2581stess": 1941,
  "9": 1942,
  "\u2581adoption": 1943,
  "\u2581CO": 1944,
  "\u2581immediately": 1945,
  "-30": 1946,
  "am": 1947,
  "\u2581sectors": 1948,
  "\u2581annimali": 1949,
  "\u2581film": 1950,
  "\u2581central": 1951,
  "\u2581question": 1952,
  "anali\u017ci": 1953,
  "Konvenzjoni": 1954,
  "\u2581four": 1955,
  "\u258170": 1956,
  "\u2581sugar": 1957,
  "\u2581towards": 1958,
  "EUR": 1959,
  "\u2581longer": 1960,
  "\u2581personali": 1961,
  "\u2581effettiv": 1962,
  "\u2581oral": 1963,
  "\u2581After": 1964,
  "dikjarazzjoni": 1965,
  "\u2581kwistjonijiet": 1966,
  "\u2581elements": 1967,
  "\u2581agrikoli": 1968,
  "\u2581heart": 1969,
  "\u2581(1),": 1970,
  "tfal": 1971,
  "Alla": 1972,
  "kodi\u010bi": 1973,
  "\u258139": 1974,
  "\u2581produced": 1975,
  "\u2581attivi": 1976,
  "\u2581(2),": 1977,
  "\u258133": 1978,
  "\u2581So\u010bjali": 1979,
  "-20": 1980,
  "\u2581promote": 1981,
  "\u2581Hu": 1982,
  "\u2581receiving": 1983,
  "\u2581ensuring": 1984,
  "\u2581cause": 1985,
  "\u2581accounts": 1986,
  "\u2581Euratom": 1987,
  "\u2581\u2265": 1988,
  "\u2581types": 1989,
  "\u2581kooperazzjoni": 1990,
  "\u2581labour": 1991,
  "\u25818.": 1992,
  "\u2581Huma": 1993,
  "istandards": 1994,
  "\u2581LI": 1995,
  "\u2581tkunx": 1996,
  "\u2581ekwivalenti": 1997,
  "\u2581500": 1998,
  "\u2581across": 1999,
  "\u2581instrument": 2000,
  "\u2581medical": 2001,
  "\u00a2": 2002,
  "\u2581amounts": 2003,
  "negozju": 2004,
  "\u2581processing": 2005,
  "\u2581applicant": 2006,
  "\u2581jkunux": 2007,
  "\u2581however": 2008,
  "\u2581laying": 2009,
  "\u2581doses": 2010,
  "em": 2011,
  "sustanza": 2012,
  "\u2581kbir": 2013,
  "\u2581participation": 2014,
  "\u2581Fir": 2015,
  "\u2581Board": 2016,
  "://": 2017,
  "\u2581uffi\u010bjali": 2018,
  "\u2581contribute": 2019,
  "\u2581multi": 2020,
  "finijiet": 2021,
  "\u2581jsiru": 2022,
  "\u2581s\u0127i\u0127a": 2023,
  "\u2581thus": 2024,
  "\u2581online": 2025,
  "\u2581guarantee": 2026,
  "\u2581jie\u0127u": 2027,
  "\u2581equal": 2028,
  "\u2581am": 2029,
  "\u2581undertakings": 2030,
  "12": 2031,
  "\u2581Development": 2032,
  "tali": 2033,
  "ba": 2034,
  "\u2581strumenti": 2035,
  "pro": 2036,
  "\u2581finanzjament": 2037,
  "\u2581IR": 2038,
  "\u2581various": 2039,
  "\u2581duty": 2040,
  "\u2581regulation": 2041,
  "identifikazzjoni": 2042,
  "\u2581undertaking": 2043,
  "\u2581medja": 2044,
  "\u2581ti\u017cgura": 2045,
  "\u2581placebo": 2046,
  "prin\u010bipji": 2047,
  "ite": 2048,
  "Partijiet": 2049,
  "\u2581global": 2050,
  "\u2581might": 2051,
  "\u2581reasons": 2052,
  "\u2581mag\u0127mula": 2053,
  "fondi": 2054,
  "\u2581short": 2055,
  "\u2581That": 2056,
  "\u2581\u017cg\u0127ar": 2057,
  "\u258137": 2058,
  "anti": 2059,
  "\u2581start": 2060,
  "\u2581methods": 2061,
  "-4": 2062,
  "tur": 2063,
  "\u2581peress": 2064,
  "\u2581koperti": 2065,
  "\u2581sintomi": 2066,
  "\u258150%": 2067,
  "g\u0127a\u017cla": 2068,
  "\u2581mhuwiex": 2069,
  "\u2581pro\u0121etti": 2070,
  "rati": 2071,
  "\u2581Ltd": 2072,
  "\u2581sistemi": 2073,
  "sit": 2074,
  "\u2581potenzjali": 2075,
  "man": 2076,
  "\u2581inform": 2077,
  "\u2581reazzjonijiet": 2078,
  "ary": 2079,
  "komunikazzjoni": 2080,
  "\u2581equivalent": 2081,
  "kumpanija": 2082,
  "ija": 2083,
  "\u2581sufficient": 2084,
  "\u2581TO": 2085,
  "\u2581avoid": 2086,
  "\u2581Germany": 2087,
  "\u2581get": 2088,
  "\u2581International": 2089,
  "\u2581real": 2090,
  "\u2581d\u0127ul": 2091,
  "a\u0127jar": 2092,
  "\u2581carry": 2093,
  "\u2581developed": 2094,
  "\u2581knowledge": 2095,
  "\u2581pilloli": 2096,
  "\u258110.": 2097,
  "tri": 2098,
  "\u2581achieved": 2099,
  "ekonomija": 2100,
  "\u2581proposta": 2101,
  "\u2581establishment": 2102,
  "\u2581achieve": 2103,
  "\u2581fixed": 2104,
  "co": 2105,
  "-3": 2106,
  "linji": 2107,
  "\u2581said": 2108,
  "\u2581crisis": 2109,
  "ata": 2110,
  "\u2581malajr": 2111,
  "\u2581marketing": 2112,
  "\u2581unit": 2113,
  "25": 2114,
  "\u2581kienx": 2115,
  "20": 2116,
  "\u2581half": 2117,
  "\u2581do\u017ci": 2118,
  "\u2581daqs": 2119,
  "\u2581agreed": 2120,
  "all": 2121,
  "\u2581interess": 2122,
  "\u2581rates": 2123,
  "\u2581applications": 2124,
  "\u2581commercial": 2125,
  "\u2581joint": 2126,
  "\u2581z": 2127,
  "\u2581orali": 2128,
  "\u2581package": 2129,
  "Taqsima": 2130,
  "\u2581presented": 2131,
  "\u2581failure": 2132,
  "-15": 2133,
  "\u2581partikolarment": 2134,
  "\u2581IN": 2135,
  "provvista": 2136,
  "\u258165": 2137,
  "\u2581art": 2138,
  "\u2581population": 2139,
  "\u2581jir\u010bievu": 2140,
  "\u25819.": 2141,
  "ul": 2142,
  "operaturi": 2143,
  "\u2581servizz": 2144,
  "\u2581consumers": 2145,
  "\u2581her": 2146,
  "dawn": 2147,
  "\u2581sales": 2148,
  "\u2581hand": 2149,
  "\u258144": 2150,
  "\u2581Ara": 2151,
  "elettriku": 2152,
  "7/": 2153,
  "kondizzjonijiet": 2154,
  "\u2581avversi": 2155,
  "\u2581far": 2156,
  "\u2581jittie\u0127du": 2157,
  "\u258142": 2158,
  "\u2581\u0127las": 2159,
  "6,": 2160,
  "\u2581awtorizzazzjoni": 2161,
  "\u2581much": 2162,
  "\u2581practices": 2163,
  "\u2581approximately": 2164,
  "8/": 2165,
  "Bord": 2166,
  "\u2581duties": 2167,
  "\u2581previsti": 2168,
  "\u2581http": 2169,
  "\u2581vial": 2170,
  "Kapitolu": 2171,
  "\u2581\u0121estjoni": 2172,
  "\u2581proposals": 2173,
  "\u2581problemi": 2174,
  "\u2581Total": 2175,
  "3/": 2176,
  "\u2581Disturb": 2177,
  "\u2581terz": 2178,
  "\u2581pi\u017c": 2179,
  "\u2581Group": 2180,
  "\u2581leaflet": 2181,
  "\u2581regions": 2182,
  "kontribuzzjoni": 2183,
  "\u2581Act": 2184,
  "\u2581paragraphs": 2185,
  "\u2581teknika": 2186,
  "border": 2187,
  "pro\u0121ett": 2188,
  "\u2581kbar": 2189,
  "\u017c": 2190,
  "\u2581anali\u017ci": 2191,
  "\u2581calculated": 2192,
  "...": 2193,
  "\u2581especially": 2194,
  "\u2581dis": 2195,
  "\u2581\u017cvilupp": 2196,
  "ej": 2197,
  "\u2581Xi": 2198,
  "\u2581liema": 2199,
  "\u2581materjali": 2200,
  "\u2581storage": 2201,
  "\u2581pre\u010bedenti": 2202,
  "\u2581effi\u010bjenti": 2203,
  "\u2581inklu\u017ca": 2204,
  "\u0127addiema": 2205,
  "persunal": 2206,
  "bu": 2207,
  "de\u010bi\u017cjonijiet": 2208,
  "\u2581tests": 2209,
  "\u2581New": 2210,
  "\u2581baxxa": 2211,
  "\u2581extent": 2212,
  "fi": 2213,
  "\u2581circumstances": 2214,
  "\u2581adjustment": 2215,
  "\u25811234/2007": 2216,
  "Programm": 2217,
  "medi\u010bina": 2218,
  "\u2581kont": 2219,
  "\u2581amendments": 2220,
  "\u2581considers": 2221,
  "\u2581Sa": 2222,
  "\u2581practice": 2223,
  "impjiegi": 2224,
  "\u258101": 2225,
  "parte\u010bipazzjoni": 2226,
  "\u2581operator": 2227,
  "\u2581previous": 2228,
  "tag\u0127mir": 2229,
  "iskema": 2230,
  "ec": 2231,
  "4,": 2232,
  "effi\u010bjenza": 2233,
  "\u2581mean": 2234,
  "\u2581implemented": 2235,
  "\u2581oil": 2236,
  "kapital": 2237,
  "\u2581sehem": 2238,
  "lanza": 2239,
  "\u2581consumer": 2240,
  "innovazzjoni": 2241,
  "\u2581pro\u010beduri": 2242,
  "\u2581around": 2243,
  "attivit\u00e0": 2244,
  "\u2581Parti": 2245,
  "\u2581follow": 2246,
  "anqas": 2247,
  "\u2581Se": 2248,
  "\u2581qal": 2249,
  "dokument": 2250,
  "\u2581notified": 2251,
  "ii": 2252,
  "flus": 2253,
  "\u2581e\u010b\u010bessiva": 2254,
  "\u2581Communication": 2255,
  "\u258100": 2256,
  "\u2581plant": 2257,
  "\u2581Q": 2258,
  "\u2581g\u0127andhomx": 2259,
  "vi": 2260,
  "\u2581category": 2261,
  "tu": 2262,
  "\u2581Fuq": 2263,
  "\u2581isiru": 2264,
  "\u2581five": 2265,
  "\u2581young": 2266,
  "\u2581identifikati": 2267,
  "\u2581proposti": 2268,
  "\u2581w": 2269,
  "\u258143": 2270,
  "\u2581transactions": 2271,
  "\u2581obligation": 2272,
  "\u2581whose": 2273,
  "\u2581representative": 2274,
  "rito": 2275,
  "\u2581ta\u0127ri\u0121": 2276,
  "\u2581kwalit\u00e0": 2277,
  "\u2581juru": 2278,
  "based": 2279,
  "paragrafi": 2280,
  "\u2581meaning": 2281,
  "edukazzjoni": 2282,
  "ftehim": 2283,
  "\u2581efforts": 2284,
  "\u2581u\u017cat": 2285,
  "\u2581forms": 2286,
  "\u2581impairment": 2287,
  "\u2581De\u010bi\u017cjoni": 2288,
  "\u2581outside": 2289,
  "\u2581amministrattivi": 2290,
  "\u2581National": 2291,
  "\u2581draft": 2292,
  "me": 2293,
  "\u2581int": 2294,
  "\u2581bank": 2295,
  "\u2581magni": 2296,
  "\u2581submit": 2297,
  "tielet": 2298,
  "14": 2299,
  "\u2581conformity": 2300,
  "linja": 2301,
  "no": 2302,
  "\u2581telf": 2303,
  "\u2581Of": 2304,
  "\u2581back": 2305,
  "\u2581others": 2306,
  "\u2581plasma": 2307,
  "\u2581notification": 2308,
  "Bank": 2309,
  "\u2581off": 2310,
  "bini": 2311,
  "\u2581jinsabu": 2312,
  "mi\u017cura": 2313,
  "\u2581isir": 2314,
  "\u2581cells": 2315,
  "\u25812011.": 2316,
  "+": 2317,
  "\u2581lis": 2318,
  "\u2581balance": 2319,
  "\u2581ID": 2320,
  "istat": 2321,
  "ED": 2322,
  "\u2581child": 2323,
  "\u2581interests": 2324,
  "limiti": 2325,
  "\u2581HIV": 2326,
  "gass": 2327,
  "\u2581feed": 2328,
  "\u0121ilda": 2329,
  "\u2581jibqg\u0127u": 2330,
  "\u2581distribution": 2331,
  "\u2581positive": 2332,
  "\u2581likely": 2333,
  "\u2581qafas": 2334,
  "\u2581One": 2335,
  "\u2581target": 2336,
  "\u2581developing": 2337,
  "assigurazzjoni": 2338,
  "\u2581Informazzjoni": 2339,
  "ent": 2340,
  "\u2581government": 2341,
  "6/": 2342,
  "iv": 2343,
  "prestazzjoni": 2344,
  "\u2581factors": 2345,
  "\u2581Such": 2346,
  "\u2581family": 2347,
  "jum": 2348,
  "\u2581recommendations": 2349,
  "\u2581attivit\u00e0": 2350,
  "\u2581ewlieni": 2351,
  "\u0120ustizzja": 2352,
  "\u2581tasks": 2353,
  "\u2581turi": 2354,
  "qu": 2355,
  "\u2581VIII": 2356,
  "dumping": 2357,
  "\u2581remain": 2358,
  "\u2581indipendenti": 2359,
  "\u2581kellu": 2360,
  "\u2581jidher": 2361,
  "\u2581107": 2362,
  "istrumenti": 2363,
  "\u2581machines": 2364,
  "\u2581vetturi": 2365,
  "\u2581qalb": 2366,
  "mira": 2367,
  "\u25812017": 2368,
  "\u2581close": 2369,
  "\u2581behalf": 2370,
  "\u2581heading": 2371,
  "\u2581intra": 2372,
  "\u2581kkon\u010bernati": 2373,
  "kuntratt": 2374,
  "\u2581requested": 2375,
  "jar": 2376,
  "\u2581matter": 2377,
  "evalwazzjoni": 2378,
  "CAS": 2379,
  "\u2581pro\u010bedura": 2380,
  "\u2581doganali": 2381,
  "\u2581called": 2382,
  "\u2581Not": 2383,
  "line": 2384,
  "\u2581initial": 2385,
  "\u2581liver": 2386,
  "titjib": 2387,
  "\u2581\u0121ol": 2388,
  "\u2581regolari": 2389,
  "\u2581involuti": 2390,
  "ta\u0127ri\u0121": 2391,
  "\u2581units": 2392,
  "\u2581exceed": 2393,
  "bi": 2394,
  "\u2581party": 2395,
  "\u2581coordination": 2396,
  "\u25812010.": 2397,
  "\u2581prejudice": 2398,
  "natura": 2399,
  "\u2581duration": 2400,
  "\u2581care": 2401,
  "\u2581official": 2402,
  "\u2581saret": 2403,
  "\u2581valur": 2404,
  "-10": 2405,
  "uri": 2406,
  "\u2581so\u0121\u0121etti": 2407,
  "\u2581forward": 2408,
  "\u2581fruit": 2409,
  "\u2581gruppi": 2410,
  "\u2581al": 2411,
  "etin": 2412,
  "\u2581Party": 2413,
  "Komunikazzjoni": 2414,
  "\u2581[...]": 2415,
  "\u2581ji\u017cgura": 2416,
  "CO": 2417,
  "\u2581users": 2418,
  "\u2581fondi": 2419,
  "\u2581resulting": 2420,
  "\u2581consultation": 2421,
  "ad": 2422,
  "\u2581monitora\u0121\u0121": 2423,
  "IN": 2424,
  "ew": 2425,
  "\u2581Patients": 2426,
  "\u2581setting": 2427,
  "\u2581syringe": 2428,
  "\u2581stakeholders": 2429,
  "coated": 2430,
  "\u2581400": 2431,
  "\u258112.": 2432,
  "\u2581receive": 2433,
  "pre": 2434,
  "\u2581importance": 2435,
  "po": 2436,
  "\u2581climate": 2437,
  "manifattur": 2438,
  "\u00e9": 2439,
  "\u0120ermanja": 2440,
  "\u2581COMMISSION": 2441,
  "\u2581istess": 2442,
  "KUMMISSJONI": 2443,
  "\u2581spe\u010bifika": 2444,
  "dinja": 2445,
  "limitu": 2446,
  "\u2581effettiva": 2447,
  "politiki": 2448,
  "\u2581kon\u010bentrazzjoni": 2449,
  "\u2581De": 2450,
  "\u2581ikel": 2451,
  "\u2581maintenance": 2452,
  "\u2581So": 2453,
  "persuna": 2454,
  "\u2581VII": 2455,
  "\u2581pere\u017cempju": 2456,
  "\u2581certificate": 2457,
  "\u2581characteristics": 2458,
  "istabbiliment": 2459,
  "\u2581membri": 2460,
  "\u2581ad": 2461,
  "ba\u0127ar": 2462,
  "\u2581region": 2463,
  "-5": 2464,
  "\u2581ba\u017ciku": 2465,
  "\u2581components": 2466,
  "\u258149": 2467,
  "va": 2468,
  "\u2581e\u017cempju": 2469,
  "\u0127olqien": 2470,
  "\u2581adequate": 2471,
  "\u2581Special": 2472,
  "\u2581\u0121img\u0127at": 2473,
  "\u2581text": 2474,
  "\u2581unless": 2475,
  "\u258110%": 2476,
  "\u25811999": 2477,
  "\u2581rapport": 2478,
  "\u2581responsibility": 2479,
  "\u2581includes": 2480,
  "\u2581table": 2481,
  "\u2581sustanza": 2482,
  "kreditu": 2483,
  "\u2581en": 2484,
  "Z": 2485,
  "\u2581COM": 2486,
  "\u2581later": 2487,
  "\u2581anki": 2488,
  "\u258198": 2489,
  "15": 2490,
  "\u2581jitqies": 2491,
  "\u2581\u0127idma": 2492,
  "benefi\u010b\u010bji": 2493,
  "\u258112-": 2494,
  "\u2581legislative": 2495,
  "\u2581\u2264": 2496,
  "\u2581G\u0127andu": 2497,
  "ter": 2498,
  "\u2581konformit\u00e0": 2499,
  "')": 2500,
  "\u2581ikollhom": 2501,
  "\u2581exercise": 2502,
  "\u2581spe\u010bjalment": 2503,
  "terapija": 2504,
  "\u2581tqis": 2505,
  "ina": 2506,
  "\u2581performed": 2507,
  "\u2581infusion": 2508,
  "\u2581minbarra": 2509,
  "vetturi": 2510,
  "\u2581spe\u010bifikati": 2511,
  "19": 2512,
  "\u2581billion": 2513,
  "\u2581miksija": 2514,
  "\u2581serum": 2515,
  "\u2581AUTHORISATION": 2516,
  "\u2581corresponding": 2517,
  "\u2581respectively": 2518,
  "\u258102": 2519,
  "ament": 2520,
  "dokumenti": 2521,
  "\u2581g\u0127adhom": 2522,
  "\u0121": 2523,
  "\u2581occur": 2524,
  "\u2581(7)": 2525,
  "-25": 2526,
  "\u2581guidelines": 2527,
  "\u2581evidenza": 2528,
  "\u2581asso\u010bjati": 2529,
  "\u2581land": 2530,
  "\u2581rispettivament": 2531,
  "\u2581\u017cgurata": 2532,
  "\u258152": 2533,
  "\u2581SMEs": 2534,
  "self": 2535,
  "9/": 2536,
  "twettiq": 2537,
  "\u25812014.": 2538,
  "\u2581jit": 2539,
  "\u25812001": 2540,
  "\u2581produzzjoni": 2541,
  "\u2581frequency": 2542,
  "\u2581decided": 2543,
  "\u2581scientific": 2544,
  "\u2581often": 2545,
  "promozzjoni": 2546,
  "\u2581mag\u0127rufa": 2547,
  "\u2581Z": 2548,
  "\u2581course": 2549,
  "\u2581banks": 2550,
  "\u2581azzjonijiet": 2551,
  "\u2581size": 2552,
  "metodu": 2553,
  "\u2581enable": 2554,
  "\u2581tibda": 2555,
  "\u2581Ver": 2556,
  "\u2581(\u2265": 2557,
  "SMEs": 2558,
  "\u2581except": 2559,
  "\u2581i\u017cjed": 2560,
  "\u2581facilitate": 2561,
  "\u2581opportunities": 2562,
  "\u25812013.": 2563,
  "applikant": 2564,
  "\u2581industrijali": 2565,
  "\u2581ilma": 2566,
  "\u2581bring": 2567,
  "\u2581UN": 2568,
  "\u2581spe\u010bifikat": 2569,
  "\u2581Any": 2570,
  "\u2581tablet": 2571,
  "monitora\u0121\u0121": 2572,
  "\u2581riba": 2573,
  "\u2581week": 2574,
  "\u2581ji\u017cdied": 2575,
  "\u2581play": 2576,
  "\u0127ru\u0121": 2577,
  "\u0127ti\u0121ijiet": 2578,
  "tqeg\u0127id": 2579,
  "\u258185": 2580,
  "\u258141": 2581,
  "\u2581partners": 2582,
  "\u2581relatata": 2583,
  "klima": 2584,
  "\u2581Information": 2585,
  "\u2581But": 2586,
  "\u2581want": 2587,
  "\u2581followed": 2588,
  "\u2581mag\u0127ruf": 2589,
  "\u2581Hija": 2590,
  "13": 2591,
  "ING": 2592,
  "\u2581requirement": 2593,
  "\u2581mimlija": 2594,
  "\u2581Pre": 2595,
  "kontijiet": 2596,
  "ri\u017cultat": 2597,
  "g\u0127arfien": 2598,
  "\u2581registered": 2599,
  "siringa": 2600,
  "\u2581jen\u0127tie\u0121": 2601,
  "\u258120%": 2602,
  "\u2581trials": 2603,
  "\u2581According": 2604,
  "\u2581condition": 2605,
  "\u2581trans": 2606,
  "The": 2607,
  "\u2581eligible": 2608,
  "\u2581eli\u0121ibbli": 2609,
  "\u2581And": 2610,
  "volum": 2611,
  "\u2581programmi": 2612,
  "\u2581(0)": 2613,
  "\u2581independent": 2614,
  "\u2581limits": 2615,
  "\u2581ri\u010berka": 2616,
  "\u2581via": 2617,
  "progress": 2618,
  "\u2581renali": 2619,
  "\u2581lanqas": 2620,
  "\u2581\u0127ajja": 2621,
  "\u2581determine": 2622,
  "5/": 2623,
  "\u2581protect": 2624,
  "\u2581car": 2625,
  "IT": 2626,
  "\u2581inizjali": 2627,
  "ippro\u010bessar": 2628,
  "\u2581Christian": 2629,
  "\u258156": 2630,
  "\u2581debt": 2631,
  "\u2581milk": 2632,
  "17": 2633,
  "-22": 2634,
  "01": 2635,
  "\u2581domestic": 2636,
  "\u2581currently": 2637,
  "setturi": 2638,
  "\u2581biljun": 2639,
  "\u2581\u0127ames": 2640,
  "pro\u0121etti": 2641,
  "\u2581a\u0127na": 2642,
  "4/": 2643,
  "-7": 2644,
  "-11": 2645,
  "\u2581materjal": 2646,
  "\u2581Justice": 2647,
  "\u2581concentration": 2648,
  "related": 2649,
  "\u2581Report": 2650,
  "\u2581Code": 2651,
  "\u2581model": 2652,
  "\u2581tmiem": 2653,
  "o\u0121\u0121etti": 2654,
  "\u258147": 2655,
  "\u2581transmission": 2656,
  "\u2581consider": 2657,
  "\u2581too": 2658,
  "\u2581technology": 2659,
  "responsabbilt\u00e0": 2660,
  "27": 2661,
  "\u2581expressed": 2662,
  "\u2581complete": 2663,
  "ut": 2664,
  "\u2581jemenda": 2665,
  "\u2581subjects": 2666,
  "\u2581enforcement": 2667,
  "netwerk": 2668,
  "\u2581ara": 2669,
  "I\u017cvilupp": 2670,
  "istudji": 2671,
  "24": 2672,
  "05": 2673,
  "\u2581know": 2674,
  "\u2581sources": 2675,
  "\u2581nisa": 2676,
  "\u2581investments": 2677,
  "infrastruttura": 2678,
  "\u2581contain": 2679,
  "\u2581ri": 2680,
  "\u2581(2": 2681,
  "port": 2682,
  "\u2581AUC": 2683,
  "\u2581Since": 2684,
  "\u25812012.": 2685,
  "\u2581aim": 2686,
  "\u2581Security": 2687,
  "\u2581mistennija": 2688,
  "konsumatur": 2689,
  "\u2581identification": 2690,
  "-16": 2691,
  "\u2581next": 2692,
  "\u2581schemes": 2693,
  "\u2581Schengen": 2694,
  "\u2581initiative": 2695,
  "\u2581mentioned": 2696,
  "\u2581Policy": 2697,
  "\u2581increasing": 2698,
  "\u2581approvat": 2699,
  "karatteristi\u010bi": 2700,
  "ren": 2701,
  "\u2581sit": 2702,
  "\u2581\u010aentrali": 2703,
  "ry": 2704,
  "objettivi": 2705,
  "utenti": 2706,
  "\u2581net": 2707,
  "\u25815%": 2708,
  "\u2581otherwise": 2709,
  "\u2581adottat": 2710,
  "\u2581AWTORIZZAZZJONI": 2711,
  "qrib": 2712,
  "\u2581addressed": 2713,
  "ko": 2714,
  "\u258155": 2715,
  "-18": 2716,
  "istituzzjoni": 2717,
  "\u25812009.": 2718,
  "\u2581efficient": 2719,
  "operazzjonijiet": 2720,
  "\u2581proceedings": 2721,
  "\u2581jippermetti": 2722,
  "\u2581requires": 2723,
  "\u2581assi": 2724,
  "-6": 2725,
  "\u2581throughout": 2726,
  "\u2581challenges": 2727,
  "\u2581fuel": 2728,
  "\u258146": 2729,
  "\u2581show": 2730,
  "\u2581separate": 2731,
  "\u2581return": 2732,
  "\u2581erba": 2733,
  "\u258113.": 2734,
  "\u2581ammont": 2735,
  "\u2581early": 2736,
  "\u2581minimu": 2737,
  "\u2581ji": 2738,
  "\u2581mmol": 2739,
  "16": 2740,
  "\u2581mqabbla": 2741,
  "\u2581fix": 2742,
  "korpi": 2743,
  "\u2581primary": 2744,
  "\u2581tadotta": 2745,
  "\u2581solvent": 2746,
  "-12": 2747,
  "\u2581indikat": 2748,
  "\u2581initiatives": 2749,
  "Pazjenti": 2750,
  "\u2581I\u017c": 2751,
  "\u2581apparat": 2752,
  "\u2581integration": 2753,
  "\u2581qatt": 2754,
  "\u2581fwied": 2755,
  "\u2581implement": 2756,
  "att": 2757,
  "\u2581jg\u0127in": 2758,
  "age": 2759,
  "\u25811:": 2760,
  "udine": 2761,
  "\u2581articles": 2762,
  "\u2581cell": 2763,
  "\u2581ra\u0121unijiet": 2764,
  "\u2581just": 2765,
  "\u2581pla\u010bebo": 2766,
  "\u2581[2],": 2767,
  "ib": 2768,
  "tic": 2769,
  "ammonti": 2770,
  "\u258111.": 2771,
  "\u2581issir": 2772,
  "\u2581electricity": 2773,
  "\u2581Hemm": 2774,
  "\u2581Ireland": 2775,
  "\u2581source": 2776,
  "tran\u017cazzjonijiet": 2777,
  "perijodu": 2778,
  "30": 2779,
  "ies": 2780,
  "\u2581categories": 2781,
  "\u2581August": 2782,
  "filled": 2783,
  "istrate\u0121ija": 2784,
  "\u2581Pro": 2785,
  "\u2581industrial": 2786,
  "\u2581bidla": 2787,
  "\u25816,": 2788,
  "-17": 2789,
  "\u2581six": 2790,
  "\u2581tkopri": 2791,
  "\u0127idma": 2792,
  "mi": 2793,
  "\u2581jistg\u0127ux": 2794,
  "sustanzi": 2795,
  "\u2581controlled": 2796,
  "\u2581factor": 2797,
  "\u2581possibility": 2798,
  "lek": 2799,
  "\u2581rata": 2800,
  "\u2581website": 2801,
  "\u2581reach": 2802,
  "\u2581(1": 2803,
  "\u2581steel": 2804,
  "nisa": 2805,
  "g\u0127alf": 2806,
  "\u2581ti\u017cdied": 2807,
  "\u2581Energy": 2808,
  "\u258151": 2809,
  "\u2581juri": 2810,
  "\u2581ikkon\u010bernat": 2811,
  "\u2581registration": 2812,
  "\u2581\u010bertu": 2813,
  "\u0127las": 2814,
  "\u2581demand": 2815,
  "\u2581negative": 2816,
  "\u2581original": 2817,
  "\u2581ADOTTAT": 2818,
  "\u2581attenzjoni": 2819,
  "ambitu": 2820,
  "jo": 2821,
  "\u2581device": 2822,
  "\u2581aircraft": 2823,
  "\u2581fish": 2824,
  "\u2581temenda": 2825,
  "\u2581jippermettu": 2826,
  "\u2581mistenni": 2827,
  "\u2581structure": 2828,
  "31": 2829,
  "\u2581phase": 2830,
  "gra": 2831,
  "\u2581ability": 2832,
  "\u2581income": 2833,
  "\u2581impatt": 2834,
  "\u2581significantly": 2835,
  "\u25814.4)": 2836,
  "fer": 2837,
  "\u2581Fid": 2838,
  "\u2581bba\u017cati": 2839,
  "umab": 2840,
  "\u2581ji\u017cviluppaw": 2841,
  "\u2581recovery": 2842,
  "*": 2843,
  "\u258187": 2844,
  "-27": 2845,
  "\u2581applies": 2846,
  "injezzjoni": 2847,
  "\u2581aspects": 2848,
  "\u2581Framework": 2849,
  "\u2581g\u0127aliex": 2850,
  "\u2581decide": 2851,
  "ori\u0121ini": 2852,
  "\u2581\u010a": 2853,
  "Article": 2854,
  "\u2581priority": 2855,
  "\u258162": 2856,
  "\u2581flus": 2857,
  "\u2581jistax": 2858,
  "\u2581maintain": 2859,
  "elementi": 2860,
  "\u2581Komunitarja": 2861,
  "\u2581pre\u017centi": 2862,
  "\u2581declaration": 2863,
  "\u2581networks": 2864,
  "].": 2865,
  "\u258154": 2866,
  "\u2581professjonali": 2867,
  "\u2581mass": 2868,
  "\u2581programm": 2869,
  "0/": 2870,
  "11": 2871,
  "\u2581integrated": 2872,
  "\u2581\u017bEE": 2873,
  "\u2581System": 2874,
  "\u2581Gwida": 2875,
  "ac": 2876,
  "\u2581come": 2877,
  "\u2581lack": 2878,
  "\u2581Franza": 2879,
  "\u2581mi\u017cjud": 2880,
  "\u2581\u0121ejja": 2881,
  "\u2581foreign": 2882,
  "ovah": 2883,
  "\u2581kind": 2884,
  "\u258153": 2885,
  "-19": 2886,
  "\u2581applikati": 2887,
  "day": 2888,
  "\u2581interested": 2889,
  "JIET": 2890,
  "\u2581uniku": 2891,
  "\u2581entered": 2892,
  "ux": 2893,
  "\u2581jibqa": 2894,
  "\u2581tistax": 2895,
  "\u2581favur": 2896,
  "\u2581See": 2897,
  "\u2581ori\u0121inali": 2898,
  "40": 2899,
  "telf": 2900,
  "LA": 2901,
  "\u2581conducted": 2902,
  "\u2581fiskali": 2903,
  "\u2581affected": 2904,
  "ro": 2905,
  "nefqa": 2906,
  "\u2581atti": 2907,
  "\u2581design": 2908,
  "\u2581MEDICIN": 2909,
  "\u2581assess": 2910,
  "om": 2911,
  "\u2581matters": 2912,
  "iskambju": 2913,
  "\u2581kollox": 2914,
  "\u2581professional": 2915,
  "\u2581\u0120": 2916,
  "\u25812015.": 2917,
  "notifika": 2918,
  "\u2581ratio": 2919,
  "\u2581Regulations": 2920,
  "popolazzjoni": 2921,
  "\u2581regular": 2922,
  "\u2581tippermetti": 2923,
  "-21": 2924,
  "\u2581assessed": 2925,
  "\u2581jirri\u017cultaw": 2926,
  "\u2581dumping": 2927,
  "\u2581airport": 2928,
  "obbligu": 2929,
  "\u2581kumpaniji": 2930,
  "\u2581vitro": 2931,
  "agli": 2932,
  "\u2581ri\u017corsi": 2933,
  "\u2581month": 2934,
  "\u2581e\u010b\u010b": 2935,
  "\u2581konsistenti": 2936,
  "-8": 2937,
  "rwol": 2938,
  "\u2581Furthermore": 2939,
  "\u2581powder": 2940,
  "possibbilt\u00e0": 2941,
  "\u2581Di": 2942,
  "kbira": 2943,
  "fil": 2944,
  "hose": 2945,
  "\u2581exporting": 2946,
  "\u2581functioning": 2947,
  "atti": 2948,
  "\u258161": 2949,
  "\u2581jog\u0127\u0121bok": 2950,
  "\u2581ijiem": 2951,
  "\u2581tell": 2952,
  "\u2581infection": 2953,
  "\u0127alib": 2954,
  "turi": 2955,
  "\u2581tinsab": 2956,
  "\u2581regulations": 2957,
  "if": 2958,
  "\u25812011,": 2959,
  "\u2581powers": 2960,
  "kategorija": 2961,
  "\u2581jistabbilixxu": 2962,
  "\u2581limitat": 2963,
  "\u2581elettroniku": 2964,
  "\u2581tkabbir": 2965,
  "\u2581CI": 2966,
  "\u2581Human": 2967,
  "\u2581base": 2968,
  "\u2581titqies": 2969,
  "ised": 2970,
  "\u2581na\u0127a": 2971,
  "\u2581spiss": 2972,
  "\u2581office": 2973,
  "\u25812010,": 2974,
  "\u2581notice": 2975,
  "\u2581plans": 2976,
  "\u2581go": 2977,
  "\u2581testing": 2978,
  "\u2581informed": 2979,
  "\u2581restructuring": 2980,
  "\u2581rispons": 2981,
  "\u25814.2": 2982,
  "\u2581sitt": 2983,
  "\u2581\u0121ewwa": 2984,
  "\u2581keep": 2985,
  "\u2581Fit": 2986,
  "\u2581laws": 2987,
  "\u2581136": 2988,
  "\u2581rekwi\u017citi": 2989,
  "\u2581grant": 2990,
  "\u2581applying": 2991,
  "\u2581effectiveness": 2992,
  "\u2581REGULATION": 2993,
  "g\u0127andux": 2994,
  "o\u0127rajn": 2995,
  "bastimenti": 2996,
  "kejl": 2997,
  "rs": 2998,
  "REGOLAMENT": 2999,
  "\u2581pharmacist": 3000,
  "In": 3001,
  "\u2581recognised": 3002,
  "\u2581definition": 3003,
  "\u258172": 3004,
  "\u2581technologies": 3005,
  "\u2581tittie\u0127ed": 3006,
  "\u2581osservati": 3007,
  "\u258188": 3008,
  "\u2581mechanism": 3009,
  "\u2581manner": 3010,
  "\u2581concentrations": 3011,
  "\u2581jorbot": 3012,
  "renz": 3013,
  "\u2581clearly": 3014,
  "\u2581Kon\u0121unt": 3015,
  "0": 3016,
  "\u2581konsultazzjoni": 3017,
  "i\u010bi": 3018,
  "\u2581interferon": 3019,
  "\u2581revenue": 3020,
  "\u2581securities": 3021,
  "operatur": 3022,
  "\u2581paper": 3023,
  "18": 3024,
  "\u2581ON": 3025,
  "\u2581entirety": 3026,
  "\u2581jobs": 3027,
  "iktar": 3028,
  "\u2581states": 3029,
  "re\u0121juni": 3030,
  "\u2581tibqa": 3031,
  "\u2581MEDI\u010aINALI": 3032,
  "pubbliku": 3033,
  "fa": 3034,
  "\u2581paragrafu": 3035,
  "\u2581estimated": 3036,
  "\u2581recent": 3037,
  "integrazzjoni": 3038,
  "\u2581entitajiet": 3039,
  "\u2581previst": 3040,
  "\u2581accordingly": 3041,
  "47": 3042,
  "\u2581Date": 3043,
  "\u2581qieg\u0127ed": 3044,
  "isforzi": 3045,
  "\u2581mhijiex": 3046,
  "\u25812:": 3047,
  "\u2581bidu": 3048,
  "\u2581property": 3049,
  "\u2581devices": 3050,
  "\u2581Mill": 3051,
  "re\u0121jun": 3052,
  "t\u00e0": 3053,
  "\u2581concerns": 3054,
  "\u2581OR": 3055,
  "\u2581rari": 3056,
  "\u2581[3]": 3057,
  "\u2581measured": 3058,
  "21": 3059,
  "\u2581loans": 3060,
  "\u258195": 3061,
  "\u2581decrease": 3062,
  "\u2581spejje\u017c": 3063,
  "\u2581surface": 3064,
  "korp": 3065,
  "\u2581glucose": 3066,
  "intier": 3067,
  "\u2581read": 3068,
  "\u2581Moreover": 3069,
  "Regolamenti": 3070,
  "\u2581Action": 3071,
  "\u2581\u0121urnata": 3072,
  "\u2581tkompli": 3073,
  "\u2581road": 3074,
  "\u0121lieda": 3075,
  "\u2581comments": 3076,
  "\u2581twassal": 3077,
  "\u017cejt": 3078,
  "\u2581Tabella": 3079,
  "\u2581pay": 3080,
  "-13": 3081,
  "\u2581Im": 3082,
  "\u25812012,": 3083,
  "\u2581w\u0127ud": 3084,
  "\u2581sale": 3085,
  "\u2581B\u0127ala": 3086,
  "kont": 3087,
  "\u2581building": 3088,
  "\u2581chloride": 3089,
  "\u2581q": 3090,
  "\u2581membru": 3091,
  "\u2581250": 3092,
  "\u258157": 3093,
  "\u2581jissodisfaw": 3094,
  "\u2581tipi": 3095,
  "\u2581etc": 3096,
  "ance": 3097,
  "\u2581Italy": 3098,
  "\u2581stock": 3099,
  "\u2581controls": 3100,
  "\u2581perijodu": 3101,
  "ton": 3102,
  "\u2581Internazzjonali": 3103,
  "kri\u017ci": 3104,
  "\u2581DAN": 3105,
  "triq": 3106,
  "\u2581element": 3107,
  "Sigurt\u00e0": 3108,
  "\u2581words": 3109,
  "\u2581temperature": 3110,
  "\u2581dirett": 3111,
  "-14": 3112,
  "\u2581tid\u0127ol": 3113,
  "\u2581trab": 3114,
  "60": 3115,
  "\u2581esperjenza": 3116,
  "\u2581breast": 3117,
  "\u2581fi\u010b": 3118,
  "\u2581Office": 3119,
  "II": 3120,
  "\u2581indicate": 3121,
  "\u2581strong": 3122,
  "\u25812009,": 3123,
  "\u2581fuljett": 3124,
  "rabta": 3125,
  "\u2581kapa\u010bi": 3126,
  "bo": 3127,
  "\u2581evalwazzjoni": 3128,
  "\u2581dialogue": 3129,
  "\u2581medium": 3130,
  "\u2581majority": 3131,
  "\u2581\u0126": 3132,
  "apparat": 3133,
  "\u2581suspension": 3134,
  "\u2581titjib": 3135,
  "\u2581trading": 3136,
  "\u2581efficacy": 3137,
  "\u2581she": 3138,
  "\u2581Ri": 3139,
  "\u2581nor": 3140,
  "\u2581\u0127a\u0121a": 3141,
  "00": 3142,
  "\u2581tools": 3143,
  "\u2581supporting": 3144,
  "merkanzija": 3145,
  "\u2581affarijiet": 3146,
  "\u2581g\u0127ajr": 3147,
  "\u2581Ekonomiku": 3148,
  "\u2581Post": 3149,
  "\u2581live": 3150,
  "wi\u010b\u010b": 3151,
  "\u2581holding": 3152,
  "\u2581consistent": 3153,
  "\u2581tieg\u0127i": 3154,
  "\u25812013,": 3155,
  "\u2581prepared": 3156,
  "gvern": 3157,
  "\u2581audit": 3158,
  "\u2581home": 3159,
  "\u2581Some": 3160,
  "\u2581mog\u0127ti": 3161,
  "\u2581de\u010bi\u017cjonijiet": 3162,
  "\u2581minnu": 3163,
  "istudju": 3164,
  "\u2581preparation": 3165,
  "eva": 3166,
  "\u0127alma": 3167,
  "\u258114.": 3168,
  "\u2581600": 3169,
  "-23": 3170,
  "\u2581needle": 3171,
  "pressjoni": 3172,
  "\u2581advice": 3173,
  "EL": 3174,
  "\u2581stated": 3175,
  "28": 3176,
  "\u2581movement": 3177,
  "\u2581contributions": 3178,
  "\u2581details": 3179,
  "pa\u0121na": 3180,
  "re\u0121istrazzjoni": 3181,
  "\u2581La": 3182,
  "kalkolu": 3183,
  "\u2581transparency": 3184,
  "\u2581statement": 3185,
  "\u2581jirri\u017culta": 3186,
  "i\u017c": 3187,
  "Is": 3188,
  "\u2581massima": 3189,
  "\u2581procurement": 3190,
  "kwistjoni": 3191,
  "\u2581(3": 3192,
  "\u2581darbtejn": 3193,
  "\u2581allowed": 3194,
  "\u2581IT": 3195,
  "Politika": 3196,
  "manifattura": 3197,
  "\u2581mhix": 3198,
  "\u2581conclusions": 3199,
  "tin": 3200,
  "\u25812014,": 3201,
  "\u2581ti": 3202,
  "\u2581yet": 3203,
  "interessi": 3204,
  "5,": 3205,
  "\u2581placed": 3206,
  "\u2581serji": 3207,
  "\u2581lir": 3208,
  "03": 3209,
  "\u2581limitata": 3210,
  "\u2581elettroni\u010bi": 3211,
  "\u2581clearance": 3212,
  "\u258174": 3213,
  "mezzi": 3214,
  "pjanti": 3215,
  "\u2581attention": 3216,
  "impri\u017ci": 3217,
  "\u2581je\u0127tie\u0121u": 3218,
  "effika\u010bja": 3219,
  "\u2581language": 3220,
  "\u2581qieg\u0127da": 3221,
  "\u2581komunikazzjoni": 3222,
  "banek": 3223,
  "-28": 3224,
  "\u2581stability": 3225,
  "\u2581\u00b1": 3226,
  "ispi\u017cjar": 3227,
  "te\u0127id": 3228,
  "\u2581zokkor": 3229,
  "\u2581calculation": 3230,
  "\u2581border": 3231,
  "\u2581reali": 3232,
  "\u2581waters": 3233,
  "\u2581focus": 3234,
  "European": 3235,
  "\u2581linked": 3236,
  "\u2581continued": 3237,
  "\u2581transkonfinali": 3238,
  "\u2581bba\u017cata": 3239,
  "\u2581caused": 3240,
  "\u2581hard": 3241,
  "\u2581calls": 3242,
  "\u2581collection": 3243,
  "\u2581nofs": 3244,
  "\u2581Min": 3245,
  "\u2581love": 3246,
  "\u2581beyond": 3247,
  "\u2581dl": 3248,
  "\u2581Plan": 3249,
  "\u2581delegated": 3250,
  "\u2581EN": 3251,
  "\u2581politi\u010bi": 3252,
  "kampjun": 3253,
  "\u2581fundamentali": 3254,
  "\u2581temporary": 3255,
  "\u2581processes": 3256,
  "iskart": 3257,
  "\u258193": 3258,
  "\u2581TAG\u0126RIF": 3259,
  "bes": 3260,
  "\u2581MA": 3261,
  "bilan\u010b": 3262,
  "\u2581contained": 3263,
  "2)": 3264,
  "\u2581Management": 3265,
  "\u2581create": 3266,
  "\u2581g\u0127a\u010b": 3267,
  "\u2581adulti": 3268,
  "\u2581agents": 3269,
  "\u2581pharmacokinetic": 3270,
  "@": 3271,
  "\u2581ksur": 3272,
  "\u2581pass": 3273,
  "\u2581veterinary": 3274,
  "\u258158": 3275,
  "\u2581businesses": 3276,
  "\u2581Delegat": 3277,
  "\u2581Health": 3278,
  "\u2581class": 3279,
  "\u2581diffi\u010bli": 3280,
  "\u258116.": 3281,
  "esperjenza": 3282,
  "\u2581commitment": 3283,
  "\u2581irid": 3284,
  "\u2581today": 3285,
  "stim": 3286,
  "\u2581absence": 3287,
  "\u2581Kodi\u010bi": 3288,
  "\u2581page": 3289,
  "\u2581works": 3290,
  "23": 3291,
  "\u2581surveillance": 3292,
  "70": 3293,
  "\u2581\u0121eneralment": 3294,
  "\u2581pprovduti": 3295,
  "\u2581recital": 3296,
  "\u258115.": 3297,
  "\u2581stipulat": 3298,
  "\u2581provisional": 3299,
  "feron": 3300,
  "istruttura": 3301,
  "interess": 3302,
  "33": 3303,
  "\u2581developments": 3304,
  "\u2581hepati": 3305,
  "\u25818,": 3306,
  "\u2581jg\u0127id": 3307,
  "\u2581improving": 3308,
  "\u2581indicators": 3309,
  "\u2581wisq": 3310,
  "\u2581Food": 3311,
  "\u2581Director": 3312,
  "\u25811000": 3313,
  "\u258192": 3314,
  "\u2581esterni": 3315,
  "-2": 3316,
  "29": 3317,
  "ce": 3318,
  "\u2581Following": 3319,
  "\u2581Matul": 3320,
  "\u2581meetings": 3321,
  "\u2581option": 3322,
  "ase": 3323,
  "li\u0121ijiet": 3324,
  "\u2581relevanti": 3325,
  "daqs": 3326,
  "fruntieri": 3327,
  "ous": 3328,
  "\u2581repealing": 3329,
  "\u2581producer": 3330,
  "tibdil": 3331,
  "\u2581seen": 3332,
  "\u2581ju\u017ca": 3333,
  "sin": 3334,
  "\u258196": 3335,
  "\u2581120": 3336,
  "\u2581baxxi": 3337,
  "\u2581identify": 3338,
  "\u2581Market": 3339,
  "\u2581recognition": 3340,
  "si": 3341,
  "\u2581stage": 3342,
  "\u2581soon": 3343,
  "\u2581a\u0127\u0127ar": 3344,
  "\u2581\u010belluli": 3345,
  "CFSP": 3346,
  "trasferiment": 3347,
  "\u2581consideration": 3348,
  "\u2581took": 3349,
  "\u2581plants": 3350,
  "\u0121bir": 3351,
  "less": 3352,
  "\u2581conduct": 3353,
  "\u2581injury": 3354,
  "kkurati": 3355,
  "othiaz": 3356,
  "\u2581originating": 3357,
  "\u2581items": 3358,
  "\u2581verification": 3359,
  "definizzjoni": 3360,
  "\u2581supervisory": 3361,
  "\u2581jintla\u0127qu": 3362,
  "\u2581physical": 3363,
  "\u2581mi\u017cura": 3364,
  "\u2581pjan": 3365,
  "\u2581dikjarazzjoni": 3366,
  "\u2581mqabbel": 3367,
  "bidla": 3368,
  "\u2581Filwaqt": 3369,
  "\u2581sound": 3370,
  "\u2581Minister": 3371,
  "\u2581Vira": 3372,
  "\u2581provi": 3373,
  "\u2581treat": 3374,
  "\u258159": 3375,
  "\u2581priorities": 3376,
  "\").": 3377,
  "\u2581jmiss": 3378,
  "tabella": 3379,
  "\u2581opening": 3380,
  "izzazzjoni": 3381,
  "\u2581cm": 3382,
  "ki": 3383,
  "\u045b": 3384,
  "\u2581U\u017cu": 3385,
  "mudell": 3386,
  "marda": 3387,
  "\u017cg\u0127a\u017cag\u0127": 3388,
  "\u2581jg\u0127inu": 3389,
  "potenzjal": 3390,
  "\u2581hinn": 3391,
  "Italja": 3392,
  "\u2581engine": 3393,
  "\u2581itself": 3394,
  "www": 3395,
  "\u2581mag\u0127mul": 3396,
  "\u2581suq": 3397,
  "\u2581things": 3398,
  "0,": 3399,
  "\u2581g\u0127andhiex": 3400,
  "\u2581sample": 3401,
  "\u258164": 3402,
  "\u2581statistics": 3403,
  "\u2581double": 3404,
  "\u2581limitu": 3405,
  "\u2581GmbH": 3406,
  "\u2581pen": 3407,
  "\u2581regolatorji": 3408,
  "AR": 3409,
  "bank": 3410,
  "EN": 3411,
  "\u2581jittie\u0127ed": 3412,
  "\u2581negotiations": 3413,
  "\u2581twettaq": 3414,
  "\u2581competitiveness": 3415,
  "temperatura": 3416,
  "95": 3417,
  "\u2581adotta": 3418,
  "kon\u010bentrazzjoni": 3419,
  "\u2581conclusion": 3420,
  "\u2581derogation": 3421,
  "26": 3422,
  "\u2581shares": 3423,
  "snin": 3424,
  "iku": 3425,
  "diversi": 3426,
  "\u2581emendata": 3427,
  "\u2581vessel": 3428,
  "mu": 3429,
  "excluding": 3430,
  "ra\u0121unijiet": 3431,
  "\u2581543/2011": 3432,
  "\u258167": 3433,
  "g\u0127andhomx": 3434,
  "\u2581find": 3435,
  "\u25811%": 3436,
  "\u2581Jista": 3437,
  "\u2581Nazzjonali": 3438,
  "akkwist": 3439,
  "arran\u0121amenti": 3440,
  "\u2581attiv": 3441,
  "\u2581normalment": 3442,
  "kompetittivit\u00e0": 3443,
  "\u0126": 3444,
  "\u2581\u0127a": 3445,
  "\u258163": 3446,
  "\u2581white": 3447,
  "\u2581ener\u0121ija": 3448,
  "\u2581skills": 3449,
  "80": 3450,
  "ard": 3451,
  "\u2581supported": 3452,
  "ES": 3453,
  "\u2581commitments": 3454,
  "\u2581decreased": 3455,
  "\u2581klinika": 3456,
  "\u2581completed": 3457,
  "ca": 3458,
  "\u2581ta\u0127dem": 3459,
  "\u2581Awwissu": 3460,
  "\u2581governance": 3461,
  "\u2581series": 3462,
  "\u2581definit": 3463,
  "\u2581Anness": 3464,
  "\u2581fair": 3465,
  "\u2581kellha": 3466,
  "\u2581reform": 3467,
  "-26": 3468,
  "\u2581Paper": 3469,
  "\u2581compensation": 3470,
  "\u2581Dawk": 3471,
  "36": 3472,
  "\u2581privat": 3473,
  "end": 3474,
  "-9": 3475,
  "\u2581Effetti": 3476,
  "ef": 3477,
  "\u2581interni": 3478,
  "ver": 3479,
  "\u2581tibdil": 3480,
  "com": 3481,
  "qa": 3482,
  "PESK": 3483,
  "\u2581takes": 3484,
  "\u2581geographical": 3485,
  "\u2581letter": 3486,
  "\u2581twice": 3487,
  "\u2581percentage": 3488,
  "\u2581rakkomandat": 3489,
  "38": 3490,
  "\u2581g\u0127oti": 3491,
  "\u2581minnufih": 3492,
  "\u2581(4": 3493,
  "fwied": 3494,
  "\u2581promoting": 3495,
  "enti": 3496,
  "\u2581creation": 3497,
  "\u2581generally": 3498,
  "\u2581allocation": 3499,
  "\u2581a\u0121\u0121ustament": 3500,
  "\u2581Per": 3501,
  "minn": 3502,
  "\u2581enterprises": 3503,
  "\u2581reaction": 3504,
  "35": 3505,
  "\u2581Numru": 3506,
  "\u2581investigazzjoni": 3507,
  "\u2581periods": 3508,
  "\u2581starting": 3509,
  "iskop": 3510,
  "\u2581awtorizzat": 3511,
  "\u2581kliniku": 3512,
  "\u2581reason": 3513,
  "magna": 3514,
  "\u2581ja\u0127dem": 3515,
  "\u2581g\u0127adu": 3516,
  "\u2581CRR": 3517,
  "\u2581fisheries": 3518,
  "pakkett": 3519,
  "\u25813:": 3520,
  "ptin": 3521,
  "\u2581entit\u00e0": 3522,
  "\u2581rwol": 3523,
  "passi\u0121\u0121ieri": 3524,
  "\u2581Kristjan": 3525,
  "\u2581claims": 3526,
  "\u2581China": 3527,
  "\u2581determining": 3528,
  "\u2581always": 3529,
  "\u2581vegetables": 3530,
  "\u2581sostanzjali": 3531,
  "\u2581twil": 3532,
  "\u2581beta": 3533,
  "\u2581sorveljanza": 3534,
  "\u2581Safety": 3535,
  "\u2581mechanisms": 3536,
  "ts": 3537,
  "\u2581construction": 3538,
  "restrizzjonijiet": 3539,
  "\u2581mark": 3540,
  "\u2581mix": 3541,
  "rapporti": 3542,
  "\u2581resolution": 3543,
  "prevenzjoni": 3544,
  "be": 3545,
  "\u2581Use": 3546,
  "gen": 3547,
  "\u2581component": 3548,
  "Irlanda": 3549,
  "entit\u00e0": 3550,
  "\u2581jin": 3551,
  "\u2581xulxin": 3552,
  "\u2581Euro": 3553,
  "\u2581protected": 3554,
  "testijiet": 3555,
  "\u2581msemmi": 3556,
  "\u2581actual": 3557,
  "\u2581reducing": 3558,
  "9,": 3559,
  "ak": 3560,
  "et\u00e0": 3561,
  "\u2581claim": 3562,
  "\u2581emission": 3563,
  "\u2581ming\u0127and": 3564,
  "\u2581notes": 3565,
  "2.": 3566,
  "\u2581accounting": 3567,
  "go": 3568,
  "\u25812016.": 3569,
  "bbli": 3570,
  "\u2581themselves": 3571,
  "\u2581nistg\u0127u": 3572,
  "\u2581facilities": 3573,
  "\u2581vaccine": 3574,
  "\u2581examination": 3575,
  "\u2581Qabel": 3576,
  "\u2581alternative": 3577,
  "\u2581money": 3578,
  "verifika": 3579,
  "\u2581definiti": 3580,
  "\u2581ri\u017cultati": 3581,
  "\u2581MARKETING": 3582,
  "\u2581cash": 3583,
  "introduzzjoni": 3584,
  "setg\u0127a": 3585,
  "\u2581iron": 3586,
  "nu": 3587,
  "\u2581rare": 3588,
  "\u2581adult": 3589,
  "kom": 3590,
  "\u2581b\u0127alissa": 3591,
  "\u2581jwassal": 3592,
  "\u2581traffic": 3593,
  "\u2581designated": 3594,
  "\u2581(0.": 3595,
  "\u2581awtorizzati": 3596,
  "\u2581strengthen": 3597,
  "metodi": 3598,
  "\u2581extended": 3599,
  "\u2581km": 3600,
  "\u2581tri": 3601,
  "\u258125%": 3602,
  "\u2581speed": 3603,
  "ang": 3604,
  "so": 3605,
  "\u2581offer": 3606,
  "tag\u0127rif": 3607,
  "\u2581pprovduta": 3608,
  "kamp": 3609,
  "\u2581EXP": 3610,
  "tne\u0127\u0127ija": 3611,
  "\u2581taz": 3612,
  "\u2581Na": 3613,
  "\u2581checks": 3614,
  "\u2581questions": 3615,
  "\u2581lista": 3616,
  "\u2581steps": 3617,
  "\u2581pro\u010bess": 3618,
  "ty": 3619,
  "\u2581respective": 3620,
  "mg": 3621,
  "\u2581carbon": 3622,
  "do": 3623,
  "oc": 3624,
  "\u2581signs": 3625,
  "\u2581_": 3626,
  "\u2581targets": 3627,
  "ph": 3628,
  "1)": 3629,
  "\u2581glass": 3630,
  "\u2581mobility": 3631,
  "konsultazzjoni": 3632,
  "\u2581SA": 3633,
  "\u2581minimi": 3634,
  "\u2581reazzjoni": 3635,
  "\u2581description": 3636,
  "sehem": 3637,
  "\u2581Tag\u0127rif": 3638,
  "karta": 3639,
  "\u2581darbiet": 3640,
  "\u2581delay": 3641,
  "\u010a": 3642,
  "-24": 3643,
  "\u2581kinux": 3644,
  "mo": 3645,
  "\u2581budgetary": 3646,
  "intrapri\u017ci": 3647,
  "\u2581KIF": 3648,
  "\u2581done": 3649,
  "eb": 3650,
  "\u2581toxicity": 3651,
  "\u2581virus": 3652,
  "\u2581kkunsidrati": 3653,
  "Tabella": 3654,
  "\u2581pregnancy": 3655,
  "\u2581Dur": 3656,
  "\u25812018": 3657,
  "\u2581qbil": 3658,
  "\u2581g\u0127alih": 3659,
  "\u2581prevention": 3660,
  "Grupp": 3661,
  "\u2581Ex": 3662,
  "ab": 3663,
  "\u2581alone": 3664,
  "\u2581pakkett": 3665,
  "\u2581please": 3666,
  "premessa": 3667,
  "\u2581monitor": 3668,
  "\u2581Spain": 3669,
  "abbozz": 3670,
  "\u2581implimentati": 3671,
  "\u2581cancer": 3672,
  "\u2581men": 3673,
  "\u2581pre\u0121udizzju": 3674,
  "\u0121odda": 3675,
  "\u2581baseline": 3676,
  "\u2581relevance": 3677,
  "funzjoni": 3678,
  "\u2581dettaljati": 3679,
  "determinazzjoni": 3680,
  "\u010aina": 3681,
  "\u2581prova": 3682,
  "KA": 3683,
  "bi\u010b\u010ba": 3684,
  "miktub": 3685,
  "entitajiet": 3686,
  "impenn": 3687,
  "\u2581few": 3688,
  "\u2581confirmed": 3689,
  "rix": 3690,
  "\u2581kompletament": 3691,
  "Kodi\u010bi": 3692,
  "\u2581Azzjoni": 3693,
  "inizjattiva": 3694,
  "\u2581tekniku": 3695,
  "\u2581supervision": 3696,
  "PI": 3697,
  "\u2581chemical": 3698,
  "\u2581involving": 3699,
  "kuntratti": 3700,
  "\u2581kuntratti": 3701,
  "\u2581kunjett": 3702,
  "\u258166": 3703,
  "\u2581jitlob": 3704,
  "\u2581su\u0121\u0121etti": 3705,
  "\u25817,": 3706,
  "\u2581G\u0127andha": 3707,
  "\u2581proprji": 3708,
  "rita": 3709,
  "\u2581Spanja": 3710,
  "75": 3711,
  "\u2581kwa\u017ci": 3712,
  "\u258191": 3713,
  "\u2581anke": 3714,
  "og\u0127la": 3715,
  "\u2581(5": 3716,
  "\u2581participating": 3717,
  "\u2581]": 3718,
  "\u2581IX": 3719,
  "\u25811.5": 3720,
  "\u2581alia": 3721,
  "ig": 3722,
  "\u2581gross": 3723,
  "\u2581miksuba": 3724,
  "\u2581appro\u010b\u010b": 3725,
  "Uffi\u010b\u010bju": 3726,
  "\u2581alcohol": 3727,
  "\u2581minutes": 3728,
  "9.": 3729,
  "\u2581Area": 3730,
  "\u2581Your": 3731,
  "otherapy": 3732,
  "\u2581\u017cviluppati": 3733,
  ".12.": 3734,
  "\u25812008,": 3735,
  "\u2581cap": 3736,
  "\u2581comprehensive": 3737,
  "\u2581me\u0127uda": 3738,
  "\u2581\u010bara": 3739,
  "\u2581\u00d7": 3740,
  "\u2581jinbidel": 3741,
  "lo": 3742,
  "\u2581Pharma": 3743,
  "\u2581ri\u017cultat": 3744,
  "\u2581rule": 3745,
  "ated": 3746,
  "appro\u010b\u010b": 3747,
  "\u2581Title": 3748,
  "\u258173": 3749,
  "ispe\u010bifikazzjoni": 3750,
  "\u2581En": 3751,
  "-29": 3752,
  "za": 3753,
  "\u2581Air": 3754,
  "\u2581NB": 3755,
  "\u2581mag\u0127hom": 3756,
  "99": 3757,
  "\u2581Qafas": 3758,
  "\u2581pagament": 3759,
  "\u2581options": 3760,
  "by": 3761,
  "\u2581xejn": 3762,
  "mandat": 3763,
  "revi\u017cjoni": 3764,
  "\u2581qawwija": 3765,
  "\u2581elettronika": 3766,
  "off": 3767,
  "tis\u0127i\u0127": 3768,
  "\u2581Prodotti": 3769,
  "\u2581While": 3770,
  "funzjonament": 3771,
  "\u2581introduced": 3772,
  "\u2581experts": 3773,
  "\u2581representatives": 3774,
  "\u2581ugwali": 3775,
  "\u2581fatturi": 3776,
  "\u2581tg\u0127in": 3777,
  "\u2581privati": 3778,
  "\u2581FIS": 3779,
  "\u2581PRODUCT": 3780,
  "\u2581latest": 3781,
  "\u258194": 3782,
  "\u2581punti": 3783,
  "\u2581constitute": 3784,
  "\u2581CN": 3785,
  "ors": 3786,
  "negozjati": 3787,
  "op": 3788,
  "\u2581settlement": 3789,
  "\u2581pregnant": 3790,
  "\u2581death": 3791,
  "impjieg": 3792,
  "\u2581(3),": 3793,
  "medja": 3794,
  "kontrolli": 3795,
  "\u2581Association": 3796,
  "kwistjonijiet": 3797,
  "\u2581awtorit\u00e0": 3798,
  "ie": 3799,
  "\u2581instructions": 3800,
  "\u2581demonstrated": 3801,
  "\u2581Greece": 3802,
  "\u258168": 3803,
  "\u2581linji": 3804,
  "\u2581French": 3805,
  "\u2581Cmax": 3806,
  "\u2581permanenti": 3807,
  "tar": 3808,
  "\u258177": 3809,
  "\u2581presence": 3810,
  "CHMP": 3811,
  "\u2581unit\u00e0": 3812,
  "log": 3813,
  "domanda": 3814,
  "\u2581jaffettwaw": 3815,
  "\u2581difference": 3816,
  "ON": 3817,
  "\u2581check": 3818,
  "\u2581funzjoni": 3819,
  "\u2581board": 3820,
  "\u2581step": 3821,
  "ole": 3822,
  "\u2581Chinese": 3823,
  "\u2581Guidelines": 3824,
  "7,": 3825,
  "out": 3826,
  "\u2581noted": 3827,
  "\u2581spirit": 3828,
  "\u2581allocated": 3829,
  "\u2581strategic": 3830,
  "\u2581solutions": 3831,
  "\u25814:": 3832,
  "\u2581reached": 3833,
  "\u2581job": 3834,
  "it\u00e0": 3835,
  "\u2581statistical": 3836,
  "NU": 3837,
  "\u2581Research": 3838,
  ",000": 3839,
  "\u2581currency": 3840,
  "SUQ": 3841,
  "\u0127arsien": 3842,
  "avi": 3843,
  "\u2581length": 3844,
  "\u2581sent": 3845,
  "\u2581sinjali": 3846,
  "\u2581SPECIAL": 3847,
  "\u2581Government": 3848,
  "\u25813.1": 3849,
  "\u2581competitive": 3850,
  "Istrate\u0121ija": 3851,
  "General": 3852,
  "\u2581inspection": 3853,
  "\u25814.4": 3854,
  "\u2581subcutaneous": 3855,
  "\u2581combined": 3856,
  "\u2581raw": 3857,
  "VAT": 3858,
  "8,": 3859,
  "ful": 3860,
  "su\u0121\u0121ett": 3861,
  "\u2581PRODOTT": 3862,
  "\u2581bastimenti": 3863,
  "\u2581mainly": 3864,
  "\u2581skart": 3865,
  "\u2581stocks": 3866,
  "\u2581infu\u017cjoni": 3867,
  "mm": 3868,
  "\u2581face": 3869,
  "[": 3870,
  "\u2581past": 3871,
  "ia": 3872,
  "\u2581marda": 3873,
  "\u2581acting": 3874,
  "\u2581Vi": 3875,
  "\u2581fundamental": 3876,
  "\u2581Minn": 3877,
  "\u2581haemoglobin": 3878,
  "sorveljanza": 3879,
  "2002": 3880,
  "IL": 3881,
  "\u2581Bl": 3882,
  "\u2581adults": 3883,
  "\u2581space": 3884,
  "RE": 3885,
  "\u2581infezzjoni": 3886,
  "\u2581linja": 3887,
  "wi": 3888,
  "\u2581bosta": 3889,
  "\u2581quantities": 3890,
  "teknolo\u0121ija": 3891,
  "32": 3892,
  "\u2581%": 3893,
  "\u2581qawwi": 3894,
  "\u2581jinkiseb": 3895,
  "gruppi": 3896,
  "\u2581micro": 3897,
  "\u25812.5": 3898,
  "\u2581charge": 3899,
  "\u2581108": 3900,
  "\u2581Kien": 3901,
  "ement": 3902,
  "45": 3903,
  "OR": 3904,
  "\u2581pack": 3905,
  "\u2581jori\u0121inaw": 3906,
  "importanza": 3907,
  "4%": 3908,
  "89": 3909,
  "\u2581qasir": 3910,
  "\u2581di\u0121itali": 3911,
  "tazone": 3912,
  "\u2581ng\u0127ataw": 3913,
  "\u2581qrib": 3914,
  "\u2581G\u0126AT": 3915,
  "\u2581ji\u017cdiedu": 3916,
  "ilmijiet": 3917,
  "\u2581modified": 3918,
  "\u2581lin": 3919,
  "\u2581metal": 3920,
  "ajruport": 3921,
  "\u2581sets": 3922,
  "\u25812015,": 3923,
  "\u2581relatat": 3924,
  "ergic": 3925,
  "\u2581reasonable": 3926,
  "\u2581Direttiva": 3927,
  "49": 3928,
  "\u2581valid": 3929,
  "\u2581introduction": 3930,
  "\u2581sig\u0127at": 3931,
  "\u2581Contract": 3932,
  "\u2581imposed": 3933,
  "\u2581shows": 3934,
  "ix": 3935,
  "\u2581notify": 3936,
  "\u2581concern": 3937,
  "\u2581individuals": 3938,
  "ip": 3939,
  "rin": 3940,
  "\u2581indirizzati": 3941,
  "\u2581adottata": 3942,
  "37": 3943,
  "\u2581remains": 3944,
  "\u258186": 3945,
  "\u2581SPE\u010aJALI": 3946,
  "tliet": 3947,
  "\u2581jinsab": 3948,
  "\u2581agencies": 3949,
  "ok": 3950,
  "\u2581bidliet": 3951,
  "\u2581lid": 3952,
  "\u2581ma\u0127sub": 3953,
  "fornituri": 3954,
  "DE": 3955,
  "konklu\u017cjonijiet": 3956,
  "\u2581Appendix": 3957,
  "\u2581mono": 3958,
  "09": 3959,
  "konklu\u017cjoni": 3960,
  "\u2581ask": 3961,
  "\u2581closely": 3962,
  "\u2581incorporated": 3963,
  "\u2581jid\u0127lu": 3964,
  "\u2581strutturali": 3965,
  "ens": 3966,
  "land": 3967,
  "\u2581te\u0127tie\u0121": 3968,
  "&": 3969,
  "istrument": 3970,
  "\u2581Strategy": 3971,
  "\u2581High": 3972,
  "\u2581g\u0127alkemm": 3973,
  "\u2581g\u0127arfien": 3974,
  "\u2581makes": 3975,
  "\u2581dewmien": 3976,
  "8%": 3977,
  "\u2581travel": 3978,
  "\u258182": 3979,
  "\u2581Under": 3980,
  "\u2581St": 3981,
  "\u2581effectively": 3982,
  "qalb": 3983,
  "\u25812.1": 3984,
  "\u2581DIN": 3985,
  "-2-": 3986,
  "\u2581parir": 3987,
  "\u2581verifika": 3988,
  "\u2581I\u017cda": 3989,
  "\u2581jitwettqu": 3990,
  "\u2581immedjatament": 3991,
  "twelid": 3992,
  "\u2581fall": 3993,
  "mija": 3994,
  "\u2581monitored": 3995,
  "fini": 3996,
  "use": 3997,
  "\u2581criminal": 3998,
  "\u2581ra\u0121onevoli": 3999,
  "\u2581Non": 4000,
  "34": 4001,
  "\u2581differences": 4002,
  "\u2581improvement": 4003,
  "\u2581ikollu": 4004,
  "\u2581kumpens": 4005,
  "\u2581From": 4006,
  "\u2581indeboliment": 4007,
  "pi": 4008,
  "ian": 4009,
  "\u2581Ekonomika": 4010,
  "\u2581look": 4011,
  "\u2581subsequent": 4012,
  "\u2581improved": 4013,
  "\u2581situations": 4014,
  "\u2581suffi\u010bjenti": 4015,
  "tis": 4016,
  "\u2581TFEU": 4017,
  "\u2581classified": 4018,
  "\u2581amministrattiva": 4019,
  "\u2581flow": 4020,
  "miri": 4021,
  "Linji": 4022,
  "int": 4023,
  "prattika": 4024,
  "\u2581tg\u0127id": 4025,
  "\u258130%": 4026,
  "\u2581Home": 4027,
  "\u2581exposures": 4028,
  "39": 4029,
  "\u258189": 4030,
  "\u2581\u0127a\u017cin": 4031,
  "tipi": 4032,
  "isation": 4033,
  "\u2581Netherlands": 4034,
  "\u2581holder": 4035,
  "\u2581Standard": 4036,
  "\u2581losses": 4037,
  "Gvern": 4038,
  "\u2581\u0127alq": 4039,
  "\u2581Minkejj": 4040,
  "\u2581jikkontribwixxu": 4041,
  "\u2581lest": 4042,
  "traffiku": 4043,
  "\u2581practical": 4044,
  ".';": 4045,
  "\u010bertifikat": 4046,
  "Ener\u0121ija": 4047,
  "\u2581RN": 4048,
  "kundizzjoni": 4049,
  "pagamenti": 4050,
  "\u2581diretti": 4051,
  "nar": 4052,
  "abine": 4053,
  "\u2581\u0121o": 4054,
  "RO": 4055,
  "\u2581impri\u017ci": 4056,
  "\u2581accepted": 4057,
  "life": 4058,
  "\u2581103": 4059,
  "\u2581sentejn": 4060,
  "\u2581showed": 4061,
  "\u2581findings": 4062,
  "\u2581ground": 4063,
  "forniment": 4064,
  "les": 4065,
  "\u2581burden": 4066,
  "\u2581advantage": 4067,
  "\u2581madankollu": 4068,
  "\u2581emergency": 4069,
  "\u2581par": 4070,
  "\u2581feel": 4071,
  "\u2581IP": 4072,
  "\u0121isem": 4073,
  "\u2581emoglobina": 4074,
  "dejn": 4075,
  "\u2581functions": 4076,
  "mis": 4077,
  "\u2581NAME": 4078,
  "\u2581profit": 4079,
  "\u2581planning": 4080,
  "kompiti": 4081,
  "\u2581approvazzjoni": 4082,
  "\u2581difficult": 4083,
  "\u258191/414/": 4084,
  "\u2581vettura": 4085,
  "\u2581increases": 4086,
  "zokkor": 4087,
  "-2010": 4088,
  "\u2581carrying": 4089,
  "inklu\u017cjoni": 4090,
  "\u2581Luxembourg": 4091,
  "\u2581jaqg\u0127u": 4092,
  "\u2581opportunity": 4093,
  "\u2581infections": 4094,
  "\"),": 4095,
  "\u2581Belgium": 4096,
  "\u258169": 4097,
  "\u2581deemed": 4098,
  "laqg\u0127a": 4099,
  "77": 4100,
  "tion": 4101,
  "lin": 4102,
  "\u2581partikulari": 4103,
  "\u2581digital": 4104,
  "\u2581jibda": 4105,
  "\u2581125": 4106,
  "\u2581con": 4107,
  "\u2581korpi": 4108,
  "tika": 4109,
  "\u2581expiry": 4110,
  "\u2581prijorit\u00e0": 4111,
  "ot": 4112,
  "investimenti": 4113,
  "2%": 4114,
  "\u2581accompanied": 4115,
  "\u2581strument": 4116,
  "\u2581usually": 4117,
  "\u0127sieb": 4118,
  "{": 4119,
  "\u2581Affairs": 4120,
  "\u2581amendment": 4121,
  "\u2581uses": 4122,
  "88": 4123,
  "\u2581DECISION": 4124,
  "\u2581drive": 4125,
  "\u2581miftu\u0127a": 4126,
  "\u2581Why": 4127,
  "\u2581here": 4128,
  "90": 4129,
  "\u2581pla\u017cma": 4130,
  "\u2581call": 4131,
  "\u2581motor": 4132,
  "\u2581kulturali": 4133,
  "can": 4134,
  "istatus": 4135,
  "\u2581tariff": 4136,
  "\u25810.5": 4137,
  "\u25811.1": 4138,
  "\u2581red": 4139,
  "\u2581rating": 4140,
  "\u2581sostitwit": 4141,
  "\u2581damage": 4142,
  "\u2581providers": 4143,
  "soluzzjoni": 4144,
  "isfidi": 4145,
  "\u2581moderate": 4146,
  "\u2581\u0127add": 4147,
  "koordinazzjoni": 4148,
  "\u2581Trade": 4149,
  "\u2581meat": 4150,
  "\u2581kliewi": 4151,
  "\u2581nukleari": 4152,
  "\u2581stop": 4153,
  "DE\u010aI\u017bJONI": 4154,
  "futur": 4155,
  "\u017bona": 4156,
  "\u2581uniformi": 4157,
  "\u2581scale": 4158,
  "\u2581jrid": 4159,
  "\u2581finance": 4160,
  "TA": 4161,
  "Pjan": 4162,
  "terminu": 4163,
  "\u2581ibba\u017cat": 4164,
  "TQE": 4165,
  "emendi": 4166,
  "\u2581article": 4167,
  "\u2581hyper": 4168,
  "\u2581charges": 4169,
  "\u2581mutual": 4170,
  "\u2581transaction": 4171,
  "\u2581signed": 4172,
  "\u2581release": 4173,
  "\u2581assistenza": 4174,
  "\u2581cultural": 4175,
  "zzazzjoni": 4176,
  "dettalji": 4177,
  "\u2581revi\u017cjoni": 4178,
  "\u2581problem": 4179,
  "operazzjoni": 4180,
  "sta": 4181,
  "93": 4182,
  "}": 4183,
  "\u2581selected": 4184,
  "\u2581effettivi": 4185,
  "\u2581kon": 4186,
  "\u2581sorsi": 4187,
  "\u2581Paul": 4188,
  "\u2581(8)": 4189,
  "\u2581u\u017cata": 4190,
  "afil": 4191,
  "\u2581pension": 4192,
  "\u2581extra": 4193,
  "\u2581mixtieqa": 4194,
  "\u2581written": 4195,
  "\u2581G\u0127andhom": 4196,
  "\u2581rise": 4197,
  "approprjazzjoni": 4198,
  "\u2581located": 4199,
  "ium": 4200,
  "\u2581kumpanija": 4201,
  "proposti": 4202,
  "\u2581cycle": 4203,
  "\u2581port": 4204,
  "48": 4205,
  "08": 4206,
  "\u2581grounds": 4207,
  "\u2581again": 4208,
  "\u25811998": 4209,
  "\u2581ISO": 4210,
  "\u2581directive": 4211,
  "\u2581drawn": 4212,
  "\u2581inhibitors": 4213,
  "\u2581kuntatt": 4214,
  ".1.": 4215,
  "\u2581ulterjuri": 4216,
  "ittestjar": 4217,
  "\u2581hemmx": 4218,
  "ci": 4219,
  "98": 4220,
  "tifsira": 4221,
  "\u25814.3": 4222,
  "\u2581relationship": 4223,
  "\u2581\u0121isem": 4224,
  "\u2581wera": 4225,
  "Gre\u010bja": 4226,
  "\u2581mbag\u0127ad": 4227,
  "\u2581benefi\u010b\u010bju": 4228,
  "kategoriji": 4229,
  "allokazzjoni": 4230,
  "\u2581Ra": 4231,
  "\u2581connection": 4232,
  "\u2581Portugal": 4233,
  "\u2581\u017cg\u0127ir": 4234,
  "\u2581ISEM": 4235,
  "aq": 4236,
  "infurzar": 4237,
  "2006": 4238,
  "\u2581Sea": 4239,
  "frott": 4240,
  "\u2581entitled": 4241,
  "\u2581kriminali": 4242,
  "moviment": 4243,
  "G\u0126ID": 4244,
  "t\u0127addim": 4245,
  "fa\u017ci": 4246,
  "\u2581summary": 4247,
  ".2.": 4248,
  "\u2581Mar": 4249,
  "\u2581produce": 4250,
  "Sistema": 4251,
  "97": 4252,
  "\u2581note": 4253,
  "ID": 4254,
  "\u2581\u0127": 4255,
  "\u2581FUQ": 4256,
  "\u25812008.": 4257,
  "sens": 4258,
  "AT": 4259,
  "\u2581structural": 4260,
  "\u2581tnaqqas": 4261,
  "\u25811.2": 4262,
  "IS": 4263,
  "\u2581protein": 4264,
  "\u258179": 4265,
  "\u2581sure": 4266,
  "\u2581UK": 4267,
  "omide": 4268,
  "\u2581register": 4269,
  "\u2581encourage": 4270,
  "\u258176": 4271,
  "\u2581old": 4272,
  "\u2581rather": 4273,
  "42": 4274,
  "\u2581aimed": 4275,
  "dik": 4276,
  "itis": 4277,
  "\u2581Imma": 4278,
  "\u2581extension": 4279,
  "\u2581liabilities": 4280,
  "\u2581illegali": 4281,
  "\u2581G\u0126ALL": 4282,
  "negozji": 4283,
  "\u2581elementi": 4284,
  "\u2581vs": 4285,
  "ge": 4286,
  "\u2581positions": 4287,
  "\u2581preparations": 4288,
  "\u2581\u017bomm": 4289,
  "\u258105": 4290,
  "ene": 4291,
  "\u2581jitnaqqas": 4292,
  "\u2581korrispondenti": 4293,
  "\u2581safe": 4294,
  "tory": 4295,
  "\u25812.2": 4296,
  "\u2581minflok": 4297,
  "\u2581Y": 4298,
  "\u2581jintla\u0127aq": 4299,
  "22": 4300,
  "\u2581G\u0127alkemm": 4301,
  "94": 4302,
  "\u2581outcome": 4303,
  "\u2581aims": 4304,
  "3%": 4305,
  "\u2581g\u0127oljin": 4306,
  "\u2581obtain": 4307,
  "\u2581although": 4308,
  "\u2581100%": 4309,
  "\u2581multiple": 4310,
  "\u2581CHAPTER": 4311,
  "\u0127\u0121ie\u0121": 4312,
  "\u2581tidher": 4313,
  "total": 4314,
  "\u2581testijiet": 4315,
  "\u2581Finanzjarju": 4316,
  "\u2581applikat": 4317,
  "\u2581passenger": 4318,
  "Affarijiet": 4319,
  "\u2581certification": 4320,
  "\u2581frott": 4321,
  "massa": 4322,
  "\u2581mi\u017c": 4323,
  "\u2581jin\u017cammu": 4324,
  "\u2581inclusion": 4325,
  "offerti": 4326,
  "\u2581dokumenti": 4327,
  "\u2581why": 4328,
  "\u2581rapporti": 4329,
  "\u25812007,": 4330,
  "\u2581derivatives": 4331,
  "\u2581jikkon\u010bernaw": 4332,
  "\u2581potassium": 4333,
  "\u2581800": 4334,
  "\u2581loan": 4335,
  "\u2581g\u0127adha": 4336,
  "\u2581\u017b": 4337,
  "intestatura": 4338,
  "\u2581g\u0127aliha": 4339,
  "-2008": 4340,
  "\u2581Keep": 4341,
  "\u2581metodi": 4342,
  "\u2581delivery": 4343,
  "\u2581sa\u0127\u0127a": 4344,
  "\u2581ori\u0121ini": 4345,
  "\u2581ewlenija": 4346,
  "\u2581birth": 4347,
  "\u2581recorded": 4348,
  "res": 4349,
  "\u010berti": 4350,
  "IP": 4351,
  "\u2581capsules": 4352,
  "operat": 4353,
  "\u2581guarantees": 4354,
  "time": 4355,
  "\u2581learning": 4356,
  "\u2581enhance": 4357,
  "\u2581asset": 4358,
  "\u2581JEW": 4359,
  "\";": 4360,
  "\u2581garanzija": 4361,
  "\u2581iridu": 4362,
  "-2013": 4363,
  "\u2581Novo": 4364,
  "\u2581des": 4365,
  "\u2581\u0127adu": 4366,
  "\u2581classification": 4367,
  "\u2581gastro": 4368,
  "impri\u017ca": 4369,
  "\u258103": 4370,
  "\u2581draw": 4371,
  "\u2581minkejja": 4372,
  "\u2581evitat": 4373,
  "\u2581Mo": 4374,
  "\u2581user": 4375,
  "\u2581CPA": 4376,
  "6%": 4377,
  "distribuzzjoni": 4378,
  "\u2581nuclear": 4379,
  "\u2581retail": 4380,
  "\u2581Single": 4381,
  "\u2581fund": 4382,
  "\u0127ut": 4383,
  "\u2581great": 4384,
  "familja": 4385,
  "\u2581domesti\u010bi": 4386,
  "\u2581ftehimiet": 4387,
  "0%": 4388,
  "\u2581updated": 4389,
  "materjal": 4390,
  "\u2581participate": 4391,
  "07": 4392,
  "\u2581CON": 4393,
  "\u25812017.": 4394,
  "\u2581input": 4395,
  "\u2581kapital": 4396,
  "\u2581documentation": 4397,
  "Annessi": 4398,
  "\u2581natura": 4399,
  "\u2581Although": 4400,
  "\u2581prattika": 4401,
  "twaqqif": 4402,
  "\u2581IS": 4403,
  "\u2581rurali": 4404,
  "\u2581formali": 4405,
  "\u2581G\u0126ANDU": 4406,
  "\u2581Law": 4407,
  "5%": 4408,
  "\u2581tqala": 4409,
  "\u2581sussegwenti": 4410,
  "\u258104": 4411,
  "\u2581sat": 4412,
  "\u2581fattur": 4413,
  "\u2581ko": 4414,
  "\u2581web": 4415,
  "\u2581sections": 4416,
  "pe": 4417,
  "img\u0127ax": 4418,
  "\u2581kapitali": 4419,
  "92": 4420,
  "dazju": 4421,
  "\u2581granting": 4422,
  "\u2581ne\u010bessarju": 4423,
  "jali": 4424,
  "\u2581regime": 4425,
  "\u2581specifications": 4426,
  "\u2581format": 4427,
  "\u2581trasport": 4428,
  "96": 4429,
  "\u2581guidance": 4430,
  "\u2581prescribed": 4431,
  "mard": 4432,
  "\u2581hydrochlor": 4433,
  "\u2581ifisser": 4434,
  "men": 4435,
  "\u2581kriterji": 4436,
  "\u2581kkon\u010bernat": 4437,
  "\u2581heat": 4438,
  "\u2581operazzjonijiet": 4439,
  "\u2581ferm": 4440,
  "\u2581oqsma": 4441,
  "\u2581tin": 4442,
  "\u2581suitable": 4443,
  "\u2581dry": 4444,
  "referenza": 4445,
  "ling": 4446,
  "\u2581relations": 4447,
  "\u2581sea": 4448,
  "\u2581kuntratt": 4449,
  "io": 4450,
  ".11.": 4451,
  "\u2581collected": 4452,
  "\u2581drabi": 4453,
  "\u2581harmonised": 4454,
  "\u2581titlob": 4455,
  "proporzjon": 4456,
  "Suq": 4457,
  "ose": 4458,
  "tan": 4459,
  "\u2581promotion": 4460,
  "\u2581restrictions": 4461,
  "e\u0127": 4462,
  "\u2581Le": 4463,
  "\u2581AS": 4464,
  "\u2581(9)": 4465,
  "\u2581Annexes": 4466,
  "\u2581studied": 4467,
  "\u2581Peress": 4468,
  "87": 4469,
  "kon": 4470,
  "\u2581assigned": 4471,
  "\u2581exemption": 4472,
  "\u2581drittijiet": 4473,
  "\u2581previously": 4474,
  "\u258171": 4475,
  "\u2581kontribuzzjoni": 4476,
  "con": 4477,
  "\u2581korp": 4478,
  "\u2581iper": 4479,
  "\u2581jitolbu": 4480,
  "iz": 4481,
  "trex": 4482,
  "\u2581jikkonformaw": 4483,
  "\u2581swieq": 4484,
  "\u2581justified": 4485,
  "\u2581favour": 4486,
  "red": 4487,
  "\u2581beneficiary": 4488,
  "\u2581spp": 4489,
  "fond": 4490,
  "\u2581mezzi": 4491,
  "dar": 4492,
  "\u2581maintained": 4493,
  "\u2581Directives": 4494,
  "\u2581Poland": 4495,
  "\u2581VAT": 4496,
  "\u2581underlying": 4497,
  "\u2581Ministru": 4498,
  "\u25811)": 4499,
  "\u2581I\u010b": 4500,
  "\u2581fi\u017cika": 4501,
  "\u2581organised": 4502,
  "\u2581sheet": 4503,
  "\u2581Fis": 4504,
  "Polonja": 4505,
  "\u2581column": 4506,
  "kliewi": 4507,
  "karbonju": 4508,
  "85": 4509,
  "PAR": 4510,
  "\u2581jidhru": 4511,
  "\u25812%": 4512,
  "\u258178": 4513,
  "\u2581ingredients": 4514,
  "\u2581jiksbu": 4515,
  "iii": 4516,
  "\u2581earth": 4517,
  "\u2581isfel": 4518,
  "\u2581g\u0127andna": 4519,
  "\u2581Denmark": 4520,
  "\u2581mitluba": 4521,
  "\u2581dinja": 4522,
  "\u25814.1": 4523,
  "benefi\u010b\u010bju": 4524,
  "Danimarka": 4525,
  "\u2581Ko": 4526,
  "=": 4527,
  "\u2581kept": 4528,
  "g\u0127": 4529,
  "66": 4530,
  "\u2581rural": 4531,
  "\u2581item": 4532,
  "Sajd": 4533,
  "\u2581ikollok": 4534,
  "\u2581propost": 4535,
  "ten": 4536,
  "\u2581Aktar": 4537,
  "\u2581jinvolvu": 4538,
  "\u2581so\u0121\u0121ett": 4539,
  "44": 4540,
  "\u00b0": 4541,
  "our": 4542,
  "\u2581KAPITOL": 4543,
  "\u2581innovative": 4544,
  "\u2581left": 4545,
  "\u2581DATA": 4546,
  "impenji": 4547,
  "\u2581GDP": 4548,
  "\u2581bniedem": 4549,
  "\u2581remaining": 4550,
  "\u2581kliem": 4551,
  "\u2581highly": 4552,
  "ag\u0127mlu": 4553,
  "\u2581bejg\u0127": 4554,
  "kwota": 4555,
  "\u258181": 4556,
  "\u2581court": 4557,
  "\u0120": 4558,
  "\u2581jwasslu": 4559,
  "\u2581languages": 4560,
  "\u2581tit": 4561,
  "\u2581disposal": 4562,
  "\u2581renewable": 4563,
  "dom": 4564,
  "\u2581importazzjoni": 4565,
  "idejn": 4566,
  ".3.": 4567,
  "regolament": 4568,
  "\u2581operazzjonali": 4569,
  "\u2581Inter": 4570,
  "\u2581Komunitarju": 4571,
  "\u2581beginning": 4572,
  "\u2581parte\u010bipanti": 4573,
  "\u2581prima": 4574,
  "firxa": 4575,
  "\u2581Sub": 4576,
  "\u2581opinjoni": 4577,
  "aspetti": 4578,
  "non": 4579,
  "\u2581certificates": 4580,
  "\u2581adegwat": 4581,
  "\u2581indirizzata": 4582,
  "/100": 4583,
  "Rapport": 4584,
  "taqsima": 4585,
  "\u2581licence": 4586,
  "\u2581Isem": 4587,
  "\u2581firm": 4588,
  "\u2581stabbli": 4589,
  "ma\u0121\u0121oranza": 4590,
  "\u2581ro": 4591,
  "\u2581du": 4592,
  "komponenti": 4593,
  "proprjet\u00e0": 4594,
  "100": 4595,
  "rbes": 4596,
  "\u2581individwi": 4597,
  "imsie\u0127ba": 4598,
  "\u2581Ar": 4599,
  "flu": 4600,
  "joni": 4601,
  "\u25819,": 4602,
  "\u2581label": 4603,
  "attenzjoni": 4604,
  "\u2581degree": 4605,
  "s\u0127i\u0127": 4606,
  "ch": 4607,
  "common": 4608,
  "-2012": 4609,
  "over": 4610,
  "\u2581wiesg\u0127a": 4611,
  "ispi\u017ca": 4612,
  "\u25813.2": 4613,
  "\u2581interim": 4614,
  "56": 4615,
  "IC": 4616,
  "\u2581prevista": 4617,
  "\u2581wine": 4618,
  "fehma": 4619,
  "internet": 4620,
  "ika": 4621,
  "\u2581trasparenti": 4622,
  "\u2581bleeding": 4623,
  "rel": 4624,
  "\u2581urban": 4625,
  "her": 4626,
  "dawk": 4627,
  "\u2581diseases": 4628,
  "\u258180%": 4629,
  "\u0121dida": 4630,
  "\u2581Public": 4631,
  "\u2581approvati": 4632,
  "\u2581ras": 4633,
  "\u2581labra": 4634,
  "US": 4635,
  "\u2581true": 4636,
  "disinn": 4637,
  "tro": 4638,
  "Att": 4639,
  "irkupru": 4640,
  "\u2581tikkunsidra": 4641,
  "78": 4642,
  "air": 4643,
  "tfassil": 4644,
  "\u2581Investment": 4645,
  "\u2581quantity": 4646,
  "amine": 4647,
  "met": 4648,
  "\u2581San": 4649,
  "\u2581excluded": 4650,
  "\u2581manufacture": 4651,
  "istatistika": 4652,
  "marka": 4653,
  "\u2581beneficiaries": 4654,
  "gu": 4655,
  "\u2581intravenous": 4656,
  "\u2581semi": 4657,
  "\u2581imposti": 4658,
  "\u2581giving": 4659,
  "\u2581Waqt": 4660,
  "\u2581processed": 4661,
  "EFTA": 4662,
  "s\u0127ana": 4663,
  "\u2581marbutin": 4664,
  "indikazzjonijiet": 4665,
  "\u2581Cooperation": 4666,
  "BA": 4667,
  "\u2581osservat": 4668,
  "\u2581healthy": 4669,
  "\u2581incidence": 4670,
  "\u2581[4]": 4671,
  "\u2581et\u00e0": 4672,
  "\u2581amend": 4673,
  "detentur": 4674,
  "\u2581chronic": 4675,
  "\u2581jistipula": 4676,
  "fen": 4677,
  "der": 4678,
  "making": 4679,
  "\u00e8": 4680,
  "\u2581negattiv": 4681,
  "\u2581jirrappre\u017centaw": 4682,
  "\u2581rita": 4683,
  "\u2581Car": 4684,
  "\u2581komponenti": 4685,
  "\u2581history": 4686,
  "sub": 4687,
  "\u2581Rules": 4688,
  "\u0127iliet": 4689,
  "ga": 4690,
  "\u2581Man": 4691,
  "III": 4692,
  "\u2581customers": 4693,
  "ep": 4694,
  "67": 4695,
  "\u2581ra": 4696,
  "\u2581uniform": 4697,
  "\u2581minnha": 4698,
  "ized": 4699,
  "wa": 4700,
  "\u2581leading": 4701,
  "\u2581esperti": 4702,
  "\u2581JIS": 4703,
  "\u2581Number": 4704,
  "\u2581ba\u017ci\u010bi": 4705,
  "inklu\u017ci": 4706,
  "\u2581da": 4707,
  "\u2581load": 4708,
  "\u2581TAIL": 4709,
  "azzar": 4710,
  "\u2581output": 4711,
  "\u2581Treatment": 4712,
  "\u2581sites": 4713,
  "\u2581evaluated": 4714,
  "\u2581proper": 4715,
  "\u2581ways": 4716,
  "\u2581quota": 4717,
  "g\u0127u": 4718,
  "\u2581numbers": 4719,
  "\u2581lays": 4720,
  "rikonoxximent": 4721,
  "\u2581metodu": 4722,
  "\u2581diabetes": 4723,
  "Appendi\u010bi": 4724,
  "\u2581kan\u010ber": 4725,
  "\u2581po\u017cittiv": 4726,
  "nies": 4727,
  "mat": 4728,
  "\u2581deskritti": 4729,
  "\u2581handling": 4730,
  "\u2581regolatorja": 4731,
  "\u2581com": 4732,
  "\u2581derived": 4733,
  "\u2581think": 4734,
  "\u2581Test": 4735,
  "\u2581declared": 4736,
  "\u2581\u0121ust": 4737,
  "enza": 4738,
  "\u2581Lisbon": 4739,
  "\u2581tin\u017camm": 4740,
  "mit": 4741,
  "\u2581committee": 4742,
  "xiri": 4743,
  "\u2581created": 4744,
  "\u2581margin": 4745,
  "\u2581dosage": 4746,
  "\u2581participants": 4747,
  "jin": 4748,
  "\u2581ti\u017cviluppa": 4749,
  "],": 4750,
  "\u2581fi\u017ci\u010bi": 4751,
  "NUMRU": 4752,
  "ure": 4753,
  "\u2581deal": 4754,
  "\u2581applikata": 4755,
  "istandard": 4756,
  "\u2581ma\u0127ru\u0121a": 4757,
  "65": 4758,
  "68": 4759,
  "velo\u010bit\u00e0": 4760,
  "-2009": 4761,
  "ier": 4762,
  "\u2581direction": 4763,
  "par": 4764,
  "\u2581xorta": 4765,
  "prijoritajiet": 4766,
  "\u2581domestiku": 4767,
  "\u2581inkwistjoni": 4768,
  "\u2581produtturi": 4769,
  "fornitur": 4770,
  "\u2581\u0121": 4771,
  "\u2581deskritt": 4772,
  "kostijiet": 4773,
  "\u2581bone": 4774,
  "\u2581appropriations": 4775,
  "fu": 4776,
  "materjali": 4777,
  "\u2581jis": 4778,
  "\u2581emer\u0121enza": 4779,
  "\u2581living": 4780,
  "ftehimiet": 4781,
  "-2007": 4782,
  "\u2581reflect": 4783,
  "oli": 4784,
  "\u2581mieg\u0127u": 4785,
  "xx": 4786,
  "\u2581jurisdiction": 4787,
  "\u2581selection": 4788,
  "\u2581tissue": 4789,
  "\u2581bin": 4790,
  "\u2581comparable": 4791,
  "\u25813%": 4792,
  "\u2581Anti": 4793,
  "\u2581proprjet\u00e0": 4794,
  "\u2581complex": 4795,
  "jati": 4796,
  "\u2581tinnota": 4797,
  "\u2581benefi\u010b\u010bji": 4798,
  "vo": 4799,
  "assistenza": 4800,
  "ispazju": 4801,
  "\u2581exception": 4802,
  "2005": 4803,
  "ns": 4804,
  "\u2581nationals": 4805,
  "\u2581influence": 4806,
  "\u2206": 4807,
  "4.": 4808,
  "ran": 4809,
  "\u2581microgram": 4810,
  "Sa\u0127\u0127a": 4811,
  "tiva": 4812,
  "\u2581choice": 4813,
  "\u2581difficulties": 4814,
  "\u2581dritt": 4815,
  "\u2581kurrenti": 4816,
  "\u2581maritime": 4817,
  "2014": 4818,
  "41": 4819,
  "\u2581importanza": 4820,
  "57": 4821,
  "\u2581compatible": 4822,
  "\u2581parent": 4823,
  "opportunitajiet": 4824,
  "\u2581NUMBER": 4825,
  "act": 4826,
  "\u2581substantial": 4827,
  "\u2581indication": 4828,
  "\u2581blister": 4829,
  "\u2581j\u0127assar": 4830,
  "\u2581awareness": 4831,
  "regolamenti": 4832,
  "\u2581organic": 4833,
  "\u2581umana": 4834,
  "\u2581supplied": 4835,
  "la\u0127am": 4836,
  "raba": 4837,
  "ber": 4838,
  "\u25815.1": 4839,
  "\u2581\u0121ewx": 4840,
  "\u2581jissodisfa": 4841,
  "\u2581school": 4842,
  "problemi": 4843,
  "\u2581drug": 4844,
  "\u2581whom": 4845,
  "\u2581esportaturi": 4846,
  "\u2581Permezz": 4847,
  "kummenti": 4848,
  "approval": 4849,
  "\u2581poly": 4850,
  "bastiment": 4851,
  "tmiem": 4852,
  "\u2581jitnaqqsu": 4853,
  ".6.": 4854,
  "OS": 4855,
  "\u2581refer": 4856,
  "\u2581rinnovabbli": 4857,
  "\u2581away": 4858,
  "\u2581infezzjonijiet": 4859,
  "gon": 4860,
  "\u2581forma": 4861,
  "\u2581kontrolli": 4862,
  "\u2581phosphate": 4863,
  "\u2581arising": 4864,
  "\u2581led": 4865,
  "\u2581mwettqa": 4866,
  "ani": 4867,
  "fatturi": 4868,
  "\u2581measurement": 4869,
  "\u2581riskji": 4870,
  "\u2581media": 4871,
  "\u2581determination": 4872,
  "\u2581interna": 4873,
  "\u0127afna": 4874,
  "\u2581covering": 4875,
  "\u2581kompatibbli": 4876,
  "\u2581(2).": 4877,
  "ting": 4878,
  "\u2581tunnellata": 4879,
  "\u2581strengthening": 4880,
  "\u2581requests": 4881,
  "methyl": 4882,
  "\u2581PRC": 4883,
  "\u2581brought": 4884,
  "i\u017cviluppi": 4885,
  "\u2581started": 4886,
  "\u2581David": 4887,
  "diskriminazzjoni": 4888,
  "\u2581negattivi": 4889,
  "\u2581precautions": 4890,
  "\u2581liquid": 4891,
  "ov": 4892,
  "\u2581parzjali": 4893,
  "\u2581operate": 4894,
  "\u2581vanta\u0121\u0121": 4895,
  "\u0127\u017cin": 4896,
  "\u2581liability": 4897,
  "mus": 4898,
  "\u2581adjusted": 4899,
  "bit": 4900,
  "\u2581build": 4901,
  "ben": 4902,
  "\u2581adjustments": 4903,
  "medda": 4904,
  "\u2581Tista": 4905,
  "mar": 4906,
  "\u2581awtoritajiet": 4907,
  "\u2581serju": 4908,
  "\u2581machinery": 4909,
  "59": 4910,
  "\u2581ikbar": 4911,
  "soltu": 4912,
  "trasparenza": 4913,
  "\u2581medika": 4914,
  "ini": 4915,
  "\u2581\u0127sieb": 4916,
  "ze": 4917,
  "\u258197": 4918,
  "\u2581partnership": 4919,
  "\u2581jinkisbu": 4920,
  "\u2581frekwenza": 4921,
  "\u2581ter\u0121a": 4922,
  "country": 4923,
  "\u2581Be": 4924,
  "\u2581\u017coni": 4925,
  "---": 4926,
  "\u2581along": 4927,
  "\u2581massimi": 4928,
  "\u2581formal": 4929,
  "\u2581parallel": 4930,
  "\u258115%": 4931,
  "\u2581instance": 4932,
  "bidliet": 4933,
  "klijenti": 4934,
  "04": 4935,
  "\u25811.3": 4936,
  "aturi": 4937,
  "\u25815,": 4938,
  "EM": 4939,
  "\u2581Ryanair": 4940,
  "\u2581kwistjoni": 4941,
  "\u2581wide": 4942,
  "ner": 4943,
  "\u2581skala": 4944,
  "\u2581entire": 4945,
  "\u2581freedom": 4946,
  "\u2581familja": 4947,
  "netwerks": 4948,
  "\u2581kondizzjonijiet": 4949,
  "b\u017conn": 4950,
  "\u2581effika\u010bja": 4951,
  "\u2581tippre\u017centa": 4952,
  "\u2581epo": 4953,
  "\u2581wood": 4954,
  "\u017b": 4955,
  "\u2581examined": 4956,
  "Direttivi": 4957,
  "lingwa": 4958,
  "\u2581UNION": 4959,
  "\u2581em": 4960,
  "\u2581investors": 4961,
  "\u2581fuqhom": 4962,
  "kal": 4963,
  "year": 4964,
  "ji\u0121ifieri": 4965,
  "ogli": 4966,
  "\u2581180": 4967,
  "\u2581periklu": 4968,
  "\u00e1": 4969,
  "hu": 4970,
  "\u2581apparatus": 4971,
  "\u2581intervention": 4972,
  "\u017camma": 4973,
  "\u2581occurred": 4974,
  "zzjonijiet": 4975,
  "\u2581disclosure": 4976,
  "\u2581stat": 4977,
  "\u2581EFTA": 4978,
  "ks": 4979,
  "\u2581hereby": 4980,
  "\u2581consult": 4981,
  "\u2581flag": 4982,
  "Lvant": 4983,
  "\u2581politiku": 4984,
  "\u2581anzjani": 4985,
  "kunsiderazzjoni": 4986,
  "\u2581tonnes": 4987,
  "\u2581fa\u010bli": 4988,
  "55": 4989,
  "\u2581\u0126afna": 4990,
  "\u2581falling": 4991,
  "\u2581mild": 4992,
  "\u2581strategies": 4993,
  "UNJONI": 4994,
  "3.": 4995,
  "\u2581kimi\u010bi": 4996,
  "\u2581seek": 4997,
  "he": 4998,
  "2009": 4999,
  "eg": 5000,
  "\u2581Only": 5001,
  "\u2581skemi": 5002,
  "Rakkomandazzjoni": 5003,
  "\u2581kinitx": 5004,
  "\u2581operattivi": 5005,
  "\u2581migration": 5006,
  "TI": 5007,
  "\u2581transparent": 5008,
  "kliem": 5009,
  "\u2581dettaljata": 5010,
  "fl": 5011,
  "\u2581DWAR": 5012,
  ".1": 5013,
  "\u2581kapa\u010bit\u00e0": 5014,
  "aktarx": 5015,
  "\u2581opinions": 5016,
  "\u2581ibba\u017cata": 5017,
  "\u2581mewt": 5018,
  "-2011": 5019,
  "43": 5020,
  "excl": 5021,
  "setg\u0127at": 5022,
  "\u2581parameters": 5023,
  "\u2581employees": 5024,
  "\u2581trasferiment": 5025,
  "\u2581\u0121uridika": 5026,
  "\u2581dokument": 5027,
  "\u2581g\u0127aldaqstant": 5028,
  "\u2581regularly": 5029,
  "\u2581Christ": 5030,
  "kond": 5031,
  "\u2581dawl": 5032,
  "\u2581prezzijiet": 5033,
  "\u2581Art": 5034,
  "\u25812007.": 5035,
  "\u2581humans": 5036,
  "\u2581negozju": 5037,
  "\u2581jibdew": 5038,
  "\u2581kontraenti": 5039,
  "\u2581First": 5040,
  "\u2581John": 5041,
  "deroga": 5042,
  "\u2581Ka": 5043,
  "amide": 5044,
  "\u2581codes": 5045,
  "\u2581inserted": 5046,
  "\u2581firxa": 5047,
  "\u2581mag\u0127\u017cula": 5048,
  "differenza": 5049,
  "\u2581South": 5050,
  "\u2581kampjuni": 5051,
  "\u2581taf": 5052,
  "rekwi\u017cit": 5053,
  "sti": 5054,
  "ven": 5055,
  "\u2581kul\u0127add": 5056,
  "\u2581Peg": 5057,
  "\u25812016,": 5058,
  "\u2581IF": 5059,
  "\u2581Name": 5060,
  "\u2581fibres": 5061,
  "\u2581says": 5062,
  "\u2581te": 5063,
  "garanzija": 5064,
  "inklu\u017c": 5065,
  "\u2581Kon": 5066,
  "\u2581latter": 5067,
  "ishma": 5068,
  "\u2581Pa": 5069,
  "\u2581insuffi\u010bjenza": 5070,
  "\u2581borders": 5071,
  "\u2581trial": 5072,
  "\u2581incurred": 5073,
  "\u2581sempli\u010bi": 5074,
  "\u2581appointed": 5075,
  "\u2581Pawl": 5076,
  "\u2581rakkomandata": 5077,
  "\u2581judicial": 5078,
  "\u2581tqal": 5079,
  "\u2581sp": 5080,
  "\u2581Eurosystem": 5081,
  "\u2581lines": 5082,
  "ari": 5083,
  "ftu\u0127": 5084,
  "\u2581residence": 5085,
  "\u2581Read": 5086,
  "relazzjonijiet": 5087,
  "\u2581committed": 5088,
  "\u2581immediate": 5089,
  "\u2581mandate": 5090,
  "3)": 5091,
  "CT": 5092,
  "avjazzjoni": 5093,
  "\u2581DATE": 5094,
  "\u2581excluding": 5095,
  "\u2581head": 5096,
  "\u2581inizjattivi": 5097,
  "zi": 5098,
  "\u2581permanent": 5099,
  "\u2581esterna": 5100,
  "\u2581rispettivi": 5101,
  "\u2581Finland": 5102,
  "aemia": 5103,
  "\u25811107/2009": 5104,
  "\u2581Bayer": 5105,
  "\u2581Kon\u0121unta": 5106,
  "\u2581Type": 5107,
  "fruntiera": 5108,
  "\u2581prattiki": 5109,
  "1.": 5110,
  "\u2581Limited": 5111,
  "\u2581arran\u0121amenti": 5112,
  "\u2581dosing": 5113,
  "\u2581kkon\u010bernata": 5114,
  "\u2581planned": 5115,
  "\u2581wa\u0127du": 5116,
  "\u2581\u0127ut": 5117,
  "\u2581et": 5118,
  "\u2581ones": 5119,
  "ICT": 5120,
  "\u2581skambju": 5121,
  "ect": 5122,
  "lat": 5123,
  "\u2581placing": 5124,
  "\u2581ppre\u017centati": 5125,
  "\u2581strate\u0121ija": 5126,
  "\u2581TAS": 5127,
  "TFUE": 5128,
  "atur": 5129,
  "\u2581Comb": 5130,
  "1%": 5131,
  "\u2581equity": 5132,
  "\u2581properties": 5133,
  "\u2581specifically": 5134,
  "\u258140%": 5135,
  "\u2581sold": 5136,
  "\u2581Based": 5137,
  "61": 5138,
  "ordni": 5139,
  "\u2581g\u0127amel": 5140,
  "injam": 5141,
  "pre\u017cenza": 5142,
  "\u2581say": 5143,
  "issa": 5144,
  "but": 5145,
  "\u2581Israel": 5146,
  "pa": 5147,
  "\u2581allowing": 5148,
  "\u2581[2].": 5149,
  "\u2581technological": 5150,
  "\u2581\u010bittadini": 5151,
  "\u2581asso\u010bjat": 5152,
  "\u2581tajbin": 5153,
  "\u2581consisting": 5154,
  "\u2581contracting": 5155,
  "\u2581Before": 5156,
  "\u2581fulfil": 5157,
  "\u2581jin\u017camm": 5158,
  "\u2581to\u0127ro\u0121": 5159,
  "\u2581wi\u010b\u010b": 5160,
  "\u2581jqis": 5161,
  "\u2581permess": 5162,
  "\u2581tindika": 5163,
  "\u2581fiscal": 5164,
  "ap": 5165,
  "\u2581submission": 5166,
  "minbarra": 5167,
  "\u2581mixed": 5168,
  "objettiv": 5169,
  "\u2581operazzjoni": 5170,
  "\u2581Rights": 5171,
  "\u2581Komunitarji": 5172,
  "\u2581monetary": 5173,
  "su": 5174,
  "\u2581PARTICULARS": 5175,
  "\u2581judgment": 5176,
  "\u2581provider": 5177,
  "imnut": 5178,
  "\u2581para": 5179,
  "frekwenza": 5180,
  "\u258199": 5181,
  "\u2581respond": 5182,
  "\u2581jimplimentaw": 5183,
  "\u2581jirrappre\u017centa": 5184,
  "\u2581Witnesses": 5185,
  "epatite": 5186,
  "\u2581rrappurtati": 5187,
  "\u2581Executive": 5188,
  "\u2581labelling": 5189,
  "\u2581parzjalment": 5190,
  "\u2581politiki": 5191,
  "\u2581jibbenefikaw": 5192,
  "\u2581Win": 5193,
  "format": 5194,
  "e\u017cer\u010bizzju": 5195,
  "\u2581competence": 5196,
  "\u2581meqjusa": 5197,
  "ti\u010bi": 5198,
  "\u010biklu": 5199,
  "\u2581Assessment": 5200,
  "\u2581indications": 5201,
  "\u2581fields": 5202,
  "\u258110,": 5203,
  "\u2581avvenimenti": 5204,
  "\u2581jo\u0127or\u0121u": 5205,
  "ixxi": 5206,
  "\u2581former": 5207,
  "we": 5208,
  "\u2581Road": 5209,
  "\u2581unitajiet": 5210,
  "ins": 5211,
  "inib": 5212,
  "pere\u017cempju": 5213,
  "lest": 5214,
  "\u2581minuta": 5215,
  "sk": 5216,
  "\u2581Service": 5217,
  "\u2581managed": 5218,
  "RI": 5219,
  "\u2581undertaken": 5220,
  "\u2581impjieg": 5221,
  "bandiera": 5222,
  "\u2581association": 5223,
  "\u2581military": 5224,
  "\u2581rest": 5225,
  "UN": 5226,
  "\u2581alternattivi": 5227,
  "\u2581kieku": 5228,
  "\u2581jwettqu": 5229,
  "ronic": 5230,
  "\u2581record": 5231,
  "\u2581aviation": 5232,
  "\u2581book": 5233,
  "\u2581hepatitis": 5234,
  "\u2581Me": 5235,
  "\u2581konklu\u017c": 5236,
  "jat": 5237,
  "\u2581existence": 5238,
  "\u2581ne\u010bessarji": 5239,
  "not": 5240,
  "06": 5241,
  ".4.": 5242,
  "Bel\u0121ju": 5243,
  "\u2581methodology": 5244,
  "-2014": 5245,
  "\u2581Products": 5246,
  ".10.": 5247,
  "\u2581effort": 5248,
  "\u2581offered": 5249,
  "\u2581trombo": 5250,
  "ell": 5251,
  "\u2581Kontraenti": 5252,
  "ical": 5253,
  "\u2581ipo": 5254,
  "\u2581abbord": 5255,
  "\u2581perform": 5256,
  "\u2581Protection": 5257,
  "\u2581World": 5258,
  "coming": 5259,
  "\u2581G\u0126AL": 5260,
  "\u2581militari": 5261,
  "\u2581interaction": 5262,
  "\u2581transferred": 5263,
  "\u2581jindikaw": 5264,
  "\u2581tender": 5265,
  "\u25812.3": 5266,
  "\u2581transitional": 5267,
  "CC": 5268,
  "kolonna": 5269,
  "\u2581correct": 5270,
  "\u2581achieving": 5271,
  "\u2581dar": 5272,
  "\u2581excessive": 5273,
  "Ba\u0127ar": 5274,
  "\u2581never": 5275,
  "su\u010b\u010bess": 5276,
  "\u2581Or": 5277,
  "\u2581passengers": 5278,
  "ella": 5279,
  "\u2581Onc": 5280,
  "\u2581y": 5281,
  "4)": 5282,
  "\u2581Centre": 5283,
  "\u2581allows": 5284,
  "COM": 5285,
  "\u25814.5": 5286,
  "ET": 5287,
  "etti": 5288,
  "\u2581kontinwu": 5289,
  "\u2581jindika": 5290,
  "ll": 5291,
  "other": 5292,
  "indirizz": 5293,
  "fjuwil": 5294,
  "jet": 5295,
  "\u2581att": 5296,
  "\u2581chain": 5297,
  "era": 5298,
  "\u2581pi": 5299,
  "\u2581People": 5300,
  "\u2581marbut": 5301,
  "64": 5302,
  "\u2581fees": 5303,
  "\u2581Internet": 5304,
  ".5.": 5305,
  "\u2581COUNCIL": 5306,
  "KUNSILL": 5307,
  "Organizzazzjoni": 5308,
  "\u2581sin": 5309,
  "\u2581Services": 5310,
  "\u2581qualified": 5311,
  "86": 5312,
  "\u2581statistika": 5313,
  "\u2581ongoing": 5314,
  "\u2581do\u017ca\u0121\u0121": 5315,
  "\u2581sett": 5316,
  "ill": 5317,
  "\u2581agenda": 5318,
  "\u2581mezz": 5319,
  "\u2581permit": 5320,
  "\u0127sara": 5321,
  "ler": 5322,
  "\u2581llum": 5323,
  "\u2581\u0127addiema": 5324,
  "\u258183": 5325,
  "\u2581consequences": 5326,
  "\u2581link": 5327,
  "pro\u010bessi": 5328,
  "\u2581proportion": 5329,
  "\u2581purchase": 5330,
  "ism": 5331,
  "\u2581jil\u0127qu": 5332,
  "\u2581Without": 5333,
  "\u2581koordinazzjoni": 5334,
  "\u2581tipproponi": 5335,
  "ram": 5336,
  "\u2581recommendation": 5337,
  "\u2581contents": 5338,
  "\u2581experienced": 5339,
  "\u2581tinkiseb": 5340,
  "'),": 5341,
  "\u2581BY": 5342,
  "\u2581je\u017cistu": 5343,
  "79": 5344,
  "\u2581Xhieda": 5345,
  "\u2581\u0121eografika": 5346,
  "\u2581ever": 5347,
  "net": 5348,
  "\u010birkostanzi": 5349,
  "\u2581106": 5350,
  "\u2581Dak": 5351,
  "\u2581kon\u0121unta": 5352,
  "\u2581(4),": 5353,
  "\u2581emendi": 5354,
  "\u2581rash": 5355,
  "istabbilt\u00e0": 5356,
  "ah": 5357,
  "PA": 5358,
  "pazjent": 5359,
  "ino": 5360,
  "\u2581separati": 5361,
  "\u2581fat": 5362,
  "\u2581joperaw": 5363,
  "\u2581mi\u017cmuma": 5364,
  "\u2581eye": 5365,
  "vis": 5366,
  "\u2581kulur": 5367,
  "\u2581110": 5368,
  "\u2581route": 5369,
  "\u2581Box": 5370,
  "\u2581jipparte\u010bipaw": 5371,
  "ade\u017cjoni": 5372,
  "\u2581agree": 5373,
  "mer": 5374,
  "akbar": 5375,
  "djalogu": 5376,
  "\u2581sustainability": 5377,
  "\u258114,": 5378,
  "cin": 5379,
  "\u25812006,": 5380,
  "\u2581istituzzjoni": 5381,
  "kwantitajiet": 5382,
  "Afrika": 5383,
  "PR": 5384,
  "\u25814).": 5385,
  "\u2581fight": 5386,
  "\u2581ship": 5387,
  "\u2581tikkon\u010berna": 5388,
  "\u2581asked": 5389,
  "\u2581normally": 5390,
  "iskadenza": 5391,
  "\u2581US": 5392,
  "\u2581[3].": 5393,
  "\u2581adolescents": 5394,
  "\u2581demonstrate": 5395,
  "\u2581pro\u0121ett": 5396,
  "\u2581impacts": 5397,
  "\u2581carefully": 5398,
  "\u2581jkollok": 5399,
  "\u2581accession": 5400,
  "\u2581cohesion": 5401,
  "\u258160%": 5402,
  "\u2581laboratory": 5403,
  "\u2581Support": 5404,
  "g\u0127andhiex": 5405,
  "unit\u00e0": 5406,
  "\u2581Organisation": 5407,
  "\u2581communications": 5408,
  "gar": 5409,
  "\u2581mi\u017cjuda": 5410,
  "').": 5411,
  "\u2581ja\u0121ixxu": 5412,
  "e\u017cistenza": 5413,
  "such": 5414,
  "riforma": 5415,
  "\u2581fever": 5416,
  "\u2581\u017cona": 5417,
  "\u2581soluzzjonijiet": 5418,
  "\u2581suppost": 5419,
  "\u2581involvement": 5420,
  "\u2581hypoglycaemia": 5421,
  "free": 5422,
  "iema": 5423,
  "ossi": 5424,
  "\u2581ADOTTA": 5425,
  "\u2581personnel": 5426,
  "\u2581prin\u010bipalment": 5427,
  "sentenza": 5428,
  "\u0192": 5429,
  "\u2581illi": 5430,
  "\u2581More": 5431,
  "\u2581mL": 5432,
  "dazji": 5433,
  "\u2032": 5434,
  "\u2581centre": 5435,
  "\u2581jg\u0127ixu": 5436,
  "46": 5437,
  "ham": 5438,
  "responsibilities": 5439,
  "71": 5440,
  "\u2581initiation": 5441,
  "\u2581jo\u0127olqu": 5442,
  "\u2581tikkontribwixxi": 5443,
  "\u2581explained": 5444,
  "ho": 5445,
  "\u2581reforms": 5446,
  "le\u0121islazzjoni": 5447,
  "\u2581Transport": 5448,
  "a\u0121\u0121": 5449,
  "eri": 5450,
  "IM": 5451,
  "\u2581El": 5452,
  "\u2581bonds": 5453,
  "dis": 5454,
  "\u2581Partnership": 5455,
  "\u2581liquidity": 5456,
  "\u2581ja\u0121ixxi": 5457,
  "\u017ca": 5458,
  "\u2581Given": 5459,
  "bil": 5460,
  "\u2581Regional": 5461,
  "zjoni": 5462,
  "\u2581leave": 5463,
  "\u2581tirri\u017culta": 5464,
  "RP\u010a": 5465,
  "\u2581rubber": 5466,
  "\u0127ar": 5467,
  "direzzjoni": 5468,
  "relazzjoni": 5469,
  "Re": 5470,
  "\u2581facility": 5471,
  "\u2581inkella": 5472,
  "';": 5473,
  "9%": 5474,
  "\u2581preparazzjoni": 5475,
  "\u2581g\u0127a\u017cla": 5476,
  "\u25812018.": 5477,
  "\u2581mag\u0127mulin": 5478,
  "den": 5479,
  "dopa": 5480,
  "\u2581Servizzi": 5481,
  "76": 5482,
  "Lussemburgu": 5483,
  "\u2581Kar": 5484,
  "\u2581feeling": 5485,
  "\u2581jidde\u010biedi": 5486,
  "\u25813.3": 5487,
  "\u2581game": 5488,
  "\u2581secondary": 5489,
  "\u2581kuntrattwali": 5490,
  "\u2581grad": 5491,
  "\u2581specify": 5492,
  "daqqa": 5493,
  "\u2581governing": 5494,
  "\u2581amministrattiv": 5495,
  "\u2581quotas": 5496,
  "\u2581firms": 5497,
  "\u2581deleted": 5498,
  "\u2581though": 5499,
  "\u2581sa\u0127ansitra": 5500,
  "\u2581kon\u0121unt": 5501,
  "ittra": 5502,
  "\u2581structures": 5503,
  "\u2581highest": 5504,
  "\u2581severa": 5505,
  "ast": 5506,
  "\u2581JIDH": 5507,
  "\u2581poverty": 5508,
  "\u2581plus": 5509,
  "ating": 5510,
  "\u2581fiss": 5511,
  "\u2581mnejn": 5512,
  "kwoti": 5513,
  "\u2581fresh": 5514,
  "\u0121ejjieni": 5515,
  "\u2581jikkontribwixxi": 5516,
  "ster": 5517,
  "84": 5518,
  "\u2581impri\u017ca": 5519,
  "\u2581jaf": 5520,
  "\u2581mon": 5521,
  "\u2581Taliban": 5522,
  "\u2581comparison": 5523,
  "emenda": 5524,
  "\u2581diretta": 5525,
  "\u25811.4": 5526,
  "\u2581remove": 5527,
  "\u2581kru\u010bjali": 5528,
  "\u2581withdrawal": 5529,
  "\u2581Romania": 5530,
  "\u2581assigurazzjoni": 5531,
  "\u2581Studji": 5532,
  "\u25815:": 5533,
  "g\u0127a": 5534,
  "\u2581covers": 5535,
  "\u2581top": 5536,
  "\u2581rail": 5537,
  "\u2581appear": 5538,
  "\u2581regolatorju": 5539,
  "\u2581transition": 5540,
  "Portugall": 5541,
  "\u2581flight": 5542,
  "\u2581jinnota": 5543,
  "\u2581fatt": 5544,
  "\u2581po\u017cizzjoni": 5545,
  "\u2581limitati": 5546,
  "\u2581partner": 5547,
  "tiku": 5548,
  "\u2581dimension": 5549,
  "ability": 5550,
  "\u2581Fisheries": 5551,
  "\u2581notably": 5552,
  "2008": 5553,
  "g\u0127al": 5554,
  "lan": 5555,
  "\u2581opportunitajiet": 5556,
  "\u2581residenti": 5557,
  "Rumanija": 5558,
  "ag": 5559,
  "74": 5560,
  "iskemi": 5561,
  "\u2581pan": 5562,
  "\u2581injections": 5563,
  "\u2581protetti": 5564,
  "\u2581prezz": 5565,
  "\u2581BE": 5566,
  "\u2581fulfilled": 5567,
  "zz": 5568,
  "\u2581deliver": 5569,
  "\u2581Am": 5570,
  "\u2581Spe\u010bjali": 5571,
  "\u2581stmat": 5572,
  "\u2581RE": 5573,
  "\u2581serve": 5574,
  "\u2581Auditors": 5575,
  "magni": 5576,
  "g\u0127all": 5577,
  "\u2581Ming\u0127ajr": 5578,
  "\u2581Ewropa": 5579,
  "\u2581rapid": 5580,
  "\u2581fissi": 5581,
  "\u2581voluntary": 5582,
  "\u2581installation": 5583,
  "\u2581na": 5584,
  "\u2581jaqbe\u017c": 5585,
  "\u2581solid": 5586,
  "\u258111,": 5587,
  "\u2581enough": 5588,
  "Awdituri": 5589,
  "\u2581sikurezza": 5590,
  "\u2581su\u0121\u0121ett": 5591,
  "jaqsam": 5592,
  "\u2581Asso\u010bjazzjoni": 5593,
  "\u2581\u0127ielsa": 5594,
  "\u2581Ukraine": 5595,
  "ish": 5596,
  "73": 5597,
  "\u2581pinna": 5598,
  "\u2581mistoqsijiet": 5599,
  "\u2581jikkaw\u017ca": 5600,
  "\u2581packaging": 5601,
  "\u2581revised": 5602,
  "\u2581tikseb": 5603,
  "dose": 5604,
  "\u2581strength": 5605,
  "enia": 5606,
  "\u2581mnaqqsa": 5607,
  "\u2581Val": 5608,
  "\u2581indirect": 5609,
  "\u2581ppre\u017centat": 5610,
  "\u2581uman": 5611,
  "\u2581Finally": 5612,
  "\u2581kronika": 5613,
  "\u2581Members": 5614,
  "je": 5615,
  "mail": 5616,
  "lum": 5617,
  "\u2581osservata": 5618,
  "\u2581turn": 5619,
  "Ri\u010berka": 5620,
  "teknolo\u0121iji": 5621,
  "\u2581umani": 5622,
  "\u2581jindirizzaw": 5623,
  "ons": 5624,
  "\u03b1": 5625,
  "ola": 5626,
  "\u2581tmur": 5627,
  "tag\u0127lim": 5628,
  "ever": 5629,
  "\u2581Wi": 5630,
  "\u2581profile": 5631,
  "\u2581e\u017c": 5632,
  "pan": 5633,
  "\u2581manufacturing": 5634,
  "\u2581notifika": 5635,
  "\u2581confidence": 5636,
  "tariffi": 5637,
  "\u2581remuneration": 5638,
  "\u2581xjentifika": 5639,
  "mekkani\u017cmu": 5640,
  "\u2581Te": 5641,
  "omi": 5642,
  "\u2581serra": 5643,
  "\u2581version": 5644,
  "\u2581wrew": 5645,
  "\u2581invited": 5646,
  "\u2581exports": 5647,
  "\u2581vision": 5648,
  "\u2581arm": 5649,
  "ow": 5650,
  "\u2581lilu": 5651,
  "\u2581discharge": 5652,
  "\u2581store": 5653,
  "\u2581chem": 5654,
  "\u2581supports": 5655,
  "\u2581Uniku": 5656,
  "\u2581additive": 5657,
  ".\";": 5658,
  "Test": 5659,
  "\u2581tir\u010bievi": 5660,
  "\u2581twissija": 5661,
  "69": 5662,
  "\u2581HOLDER": 5663,
  "\u2581primarily": 5664,
  "\u2581jg\u0127addi": 5665,
  "ispe\u010bi": 5666,
  "\u2581Medicines": 5667,
  "benefi\u010bjarji": 5668,
  "\u2581Customs": 5669,
  "JA": 5670,
  "ger": 5671,
  "\u2581Kwalunkwe": 5672,
  "\u2581istudju": 5673,
  "\u2581identifikat": 5674,
  "\u2581titoli": 5675,
  "\u2581electric": 5676,
  "\u2581dejn": 5677,
  "\u2581Ro": 5678,
  "\u2581disturbi": 5679,
  "\u2581oxide": 5680,
  "impjegati": 5681,
  "ISO": 5682,
  "\u2581\u0127ieles": 5683,
  "CR": 5684,
  "fluss": 5685,
  "\u2581recently": 5686,
  "\u25811997": 5687,
  "negozjar": 5688,
  "\u2581impjiegi": 5689,
  "\u2581\u0127ru\u0121": 5690,
  "\u2581Sp": 5691,
  "\u2581designation": 5692,
  "\u2581older": 5693,
  "7.": 5694,
  "\u2581favorevoli": 5695,
  "\u2581discussed": 5696,
  "\u2581Medicin": 5697,
  "\u2581tel": 5698,
  "Titolu": 5699,
  "\u2581claimed": 5700,
  "\u2581kejl": 5701,
  "Nazzjoni": 5702,
  "\u2581la": 5703,
  "FR": 5704,
  "\u2581NM": 5705,
  "\u2581tool": 5706,
  "led": 5707,
  "\u2581buildings": 5708,
  "\u2581radio": 5709,
  "\u2581ta\u0127lita": 5710,
  "Re\u0121juni": 5711,
  "\u2581Kristu": 5712,
  "funzjonijiet": 5713,
  "\u2581mi\u010b": 5714,
  "xel": 5715,
  "SE": 5716,
  "\u2581OTHER": 5717,
  "\u2581nominali": 5718,
  "\u2581views": 5719,
  "\u2581aluminium": 5720,
  "\u2581generation": 5721,
  "re\u0121istru": 5722,
  "\u2581gender": 5723,
  "\u2581Govern": 5724,
  "\u2581availability": 5725,
  "\u258190%": 5726,
  "serje": 5727,
  "RA": 5728,
  "unitajiet": 5729,
  "\u2581inizjattiva": 5730,
  "\u2581114": 5731,
  "\u2581Further": 5732,
  "\u2581medda": 5733,
  "\u2581ana": 5734,
  "\u2581cut": 5735,
  "gi": 5736,
  "\u2581t\u0127assib": 5737,
  "\u2581tinbidel": 5738,
  "\u2581Technical": 5739,
  "a\u0121enziji": 5740,
  "\u2581Pi": 5741,
  "\u2581gives": 5742,
  "\u2581www": 5743,
  "\u2581run": 5744,
  "kumpens": 5745,
  "ilhom": 5746,
  "org": 5747,
  "\u2581\u017c\u017comm": 5748,
  "\u2581Nov": 5749,
  "\u2581sufficiently": 5750,
  "\u2581isem": 5751,
  "\u2581removed": 5752,
  "\u2581temperatura": 5753,
  "\u2581bba\u017cat": 5754,
  "\u2581faith": 5755,
  "\u2581hypo": 5756,
  "ik": 5757,
  "arji": 5758,
  "hr": 5759,
  "MA": 5760,
  "\u2581secure": 5761,
  "jt": 5762,
  "\u2581initiated": 5763,
  "\u2581prepare": 5764,
  "\u2581Partijiet": 5765,
  "\u2581acute": 5766,
  "injezzjonijiet": 5767,
  "\u2581My": 5768,
  "AZZJONI": 5769,
  "\u2581namely": 5770,
  "\u2581financed": 5771,
  "\u2581te\u0127id": 5772,
  "lodi": 5773,
  "add": 5774,
  "\u2581tested": 5775,
  "Internet": 5776,
  "\u2581fosthom": 5777,
  "Drittijiet": 5778,
  "ms": 5779,
  "\u2581sampling": 5780,
  "\u2581forom": 5781,
  "\u2581jse\u0127\u0127u": 5782,
  "aj": 5783,
  "\u2581core": 5784,
  "let": 5785,
  "MS": 5786,
  "\u2581Regions": 5787,
  "\u2581tinbeda": 5788,
  "\u2581fa\u017ci": 5789,
  "\u2581healthcare": 5790,
  "AD": 5791,
  "2003": 5792,
  "\u2581communicate": 5793,
  "\u2581going": 5794,
  "\u2581160": 5795,
  "\u2581Over": 5796,
  "\u2581barranin": 5797,
  "PP": 5798,
  "\u2581investimenti": 5799,
  "\u2581taxation": 5800,
  "\u2581estern": 5801,
  "\u2581samples": 5802,
  "7%": 5803,
  "MP": 5804,
  "\u2581front": 5805,
  "klassi": 5806,
  "\u2581kompetizzjoni": 5807,
  "\u2581move": 5808,
  "\u2581apposta": 5809,
  "\u2581almost": 5810,
  "\u2581capable": 5811,
  "\u2581issuing": 5812,
  "\u2581101": 5813,
  "munita": 5814,
  "ax": 5815,
  "\u2581repealed": 5816,
  "\u2581re\u010benti": 5817,
  "\u2581mobile": 5818,
  "\u2581understanding": 5819,
  "abbli": 5820,
  "\u25814.8)": 5821,
  "\u2581stadju": 5822,
  "\u2581tg\u0127addi": 5823,
  "\u2581rats": 5824,
  "\u2581marine": 5825,
  "denominazzjoni": 5826,
  "\u2581mediku": 5827,
  "\u2581Nations": 5828,
  "\u2581electrical": 5829,
  "\u2581Austria": 5830,
  "\u2581cent": 5831,
  "\u2581Animal": 5832,
  "\u2581\u010bertifikat": 5833,
  "\u2581Kemm": 5834,
  "enzja": 5835,
  "\u2581futuri": 5836,
  "\u2581skopijiet": 5837,
  "parte\u010bipanti": 5838,
  "\u2581indikati": 5839,
  "\u2581refers": 5840,
  "\u2581Sweden": 5841,
  "SS": 5842,
  "\u2581tne\u0127\u0127ija": 5843,
  "AP": 5844,
  "\u2581elettriku": 5845,
  "\u2581raise": 5846,
  "nt": 5847,
  "\u2581successful": 5848,
  "\u2581bilaterali": 5849,
  "\u25811308/2013": 5850,
  "\u2581dioxide": 5851,
  "Kummer\u010b": 5852,
  "tra\u017cmissjoni": 5853,
  "\u010be": 5854,
  "\u2581little": 5855,
  "mutur": 5856,
  "\u2581kidney": 5857,
  "\u2581skadenza": 5858,
  "72": 5859,
  "IA": 5860,
  "\u2581advance": 5861,
  "\u2581bilateral": 5862,
  "t\u0127ejjija": 5863,
  "\u2581restrictive": 5864,
  "CA": 5865,
  "\u2581\u0127alli": 5866,
  "arju": 5867,
  "kisba": 5868,
  "CH": 5869,
  "\u2581stress": 5870,
  "\u2581tant": 5871,
  "indikaturi": 5872,
  "\u2581verify": 5873,
  "hemmx": 5874,
  "\u2581ra\u0121uni": 5875,
  "\u2581sostenn": 5876,
  "\u2581Green": 5877,
  "\u2581Foreign": 5878,
  "\u2581Norway": 5879,
  "\u2581anaemia": 5880,
  "kompetenza": 5881,
  "rappurtar": 5882,
  "\u2581humiex": 5883,
  ".7": 5884,
  "\u25811996": 5885,
  "\u2581112": 5886,
  "\u2581Procedure": 5887,
  "\u2581models": 5888,
  "\u2581po\u017cittivi": 5889,
  "\u2581believes": 5890,
  "\u2581kundizzjoni": 5891,
  "58": 5892,
  "\u2581assist": 5893,
  "\u2581aspetti": 5894,
  "\u2581vomiting": 5895,
  "kun\u010bett": 5896,
  "\u2581deskrizzjoni": 5897,
  "ir\u0121iel": 5898,
  "\u2581Sigurt\u00e0": 5899,
  "PE": 5900,
  "\u2581critical": 5901,
  "\u2581trust": 5902,
  "app": 5903,
  "\u2581dogs": 5904,
  "\u2581regulated": 5905,
  "ong": 5906,
  "Regoli": 5907,
  "\u2581hold": 5908,
  "\u2581Minbarra": 5909,
  "\u2581raxx": 5910,
  "\u2581syndrome": 5911,
  "\u2581mission": 5912,
  "NA": 5913,
  "attiv": 5914,
  "\u2581creating": 5915,
  "\u2581Network": 5916,
  "IU": 5917,
  "\u2581licences": 5918,
  "\u2581relative": 5919,
  "\u2581distance": 5920,
  "hereinafter": 5921,
  "\u2581represent": 5922,
  "\u2581mi\u0121bura": 5923,
  "kwantit\u00e0": 5924,
  "son": 5925,
  "\u2581esklu\u017ci": 5926,
  "\u2581Pere\u017cempju": 5927,
  "\u2581effika\u010bi": 5928,
  "\u2581extend": 5929,
  "450": 5930,
  "\u2581update": 5931,
  "metil": 5932,
  "\u2581Communities": 5933,
  "\u2581calendar": 5934,
  "kin": 5935,
  "\u2581Dis": 5936,
  "\u2581location": 5937,
  "\u2581ru\u0127": 5938,
  "tag\u0127bija": 5939,
  "\u2581iwettqu": 5940,
  "\u2581kontinwa": 5941,
  "agrikoltura": 5942,
  "\u2581Additional": 5943,
  "nd": 5944,
  "\u2581agency": 5945,
  "\u258117.": 5946,
  "\u2581jien": 5947,
  "\u2581launched": 5948,
  "\u2581stable": 5949,
  "\u2581tqila": 5950,
  "\u2581Oral": 5951,
  "\u2581re\u010biproku": 5952,
  "\u2581farmers": 5953,
  "\u2581JING\u0126ATA": 5954,
  "\u2581driving": 5955,
  "\u2581raised": 5956,
  "bar": 5957,
  "\u2581ten": 5958,
  "\u2581zone": 5959,
  "\u2581spiritual": 5960,
  "\u2581\u017cejda": 5961,
  "Kroazja": 5962,
  "type": 5963,
  "\u2581illegal": 5964,
  "\u2581systemic": 5965,
  "\u2581dijabete": 5966,
  "\u2581properly": 5967,
  "DA": 5968,
  "ted": 5969,
  "\u25816:": 5970,
  "kapa\u010bitajiet": 5971,
  "OP": 5972,
  "PT": 5973,
  "ative": 5974,
  "\u2581probabbli": 5975,
  "\u2581serja": 5976,
  "\u2581teknolo\u0121iji": 5977,
  "\u2581Bil": 5978,
  "interpretazzjoni": 5979,
  "\u2581Programm": 5980,
  "\u2581exist": 5981,
  "\u2581justice": 5982,
  "uffi\u010b\u010bju": 5983,
  "\u2581Bulgaria": 5984,
  "perjodi": 5985,
  "\u2581attached": 5986,
  "\u2581innovattivi": 5987,
  "\u2581Abba\u017ci": 5988,
  "\u25812)": 5989,
  "e\u017cenzjoni": 5990,
  "\u2581sum": 5991,
  "ort": 5992,
  "Awstrija": 5993,
  "\u2581sharing": 5994,
  "\u2581ttrattati": 5995,
  "\u2581approvata": 5996,
  "\u2581e\u010b\u010bezzjonali": 5997,
  "500": 5998,
  "metall": 5999,
  "\u2581ru\u0127hom": 6000,
  "\u2581joffru": 6001,
  "\u2581\u017cg\u0127a\u017cag\u0127": 6002,
  "side": 6003,
  "\u2581peace": 6004,
  "Ir": 6005,
  "Bulgarija": 6006,
  "dokumentazzjoni": 6007,
  "\u2581asylum": 6008,
  "\u2581challenge": 6009,
  "\u2581dazju": 6010,
  "PDG": 6011,
  "katina": 6012,
  "\u2581tissodisfa": 6013,
  "pre\u017centazzjoni": 6014,
  "\u2581writing": 6015,
  "infiq": 6016,
  "\u2581completion": 6017,
  "\u2581DE": 6018,
  "\u2581collective": 6019,
  "Ikel": 6020,
  "\u2581emissjonijiet": 6021,
  "\u2581banking": 6022,
  "\u2581INFORMATION": 6023,
  "\u2581host": 6024,
  "\u2581mekkani\u017cmu": 6025,
  "\u2581bio": 6026,
  "\u2581mikro": 6027,
  "\u2581Specific": 6028,
  "\u2581Ba": 6029,
  "\u2581Rapport": 6030,
  "sotto": 6031,
  "\u2581came": 6032,
  "\u2581composition": 6033,
  "\u2581\u017cg\u0127ira": 6034,
  "pla\u017cma": 6035,
  "\u2581re\u0121istrazzjoni": 6036,
  "52": 6037,
  "\u2581reserve": 6038,
  "inbid": 6039,
  "\u2581jikkostitwixxu": 6040,
  "ipogli\u010bemija": 6041,
  "\u2581Within": 6042,
  "investituri": 6043,
  "tura": 6044,
  "PC": 6045,
  "\u258106": 6046,
  "kostruzzjoni": 6047,
  "\u2581sentenza": 6048,
  "\u2581valuri": 6049,
  "\u2581additives": 6050,
  "inhu": 6051,
  "ost": 6052,
  "laqg\u0127at": 6053,
  "\u2581kontribut": 6054,
  "\u2581statements": 6055,
  "fur": 6056,
  "\u2581inibituri": 6057,
  "\u2581caution": 6058,
  "\u2581multipli": 6059,
  "osis": 6060,
  "pjanijiet": 6061,
  "\u2581jinvolvi": 6062,
  "\u2581jo\u0127ro\u0121": 6063,
  "\u2581random": 6064,
  "-2015": 6065,
  "\u2581575/2013": 6066,
  "\u2581skop": 6067,
  "UL": 6068,
  "\u2581community": 6069,
  "\u2581indikazzjoni": 6070,
  "\u2581proporzjon": 6071,
  "\u2581tradizzjonali": 6072,
  "\u25812.4": 6073,
  "\u2581measuring": 6074,
  "\u2581ni": 6075,
  "\u2581minima": 6076,
  "\u2581pratti\u010bi": 6077,
  "nti": 6078,
  "\u2581347": 6079,
  "54": 6080,
  "ise": 6081,
  "\u2581(10)": 6082,
  "formola": 6083,
  "\u2581primarjament": 6084,
  "\u2581titnaqqas": 6085,
  "\u2581bnedmin": 6086,
  "\u2581Salt": 6087,
  "\u2581receipt": 6088,
  "\u2581depending": 6089,
  "estensjoni": 6090,
  "\u2581a\u010b\u010bessibbli": 6091,
  "\u2581laqg\u0127a": 6092,
  "\u2581karatteristi\u010bi": 6093,
  "val": 6094,
  "\u2581Croatia": 6095,
  "\u2581kontenut": 6096,
  "vel": 6097,
  "\u2581savings": 6098,
  "AN": 6099,
  "\u2581expenses": 6100,
  "\u25811995": 6101,
  "\u2581ikkon\u010bernati": 6102,
  "\u2581jimplimenta": 6103,
  "\u2581barriers": 6104,
  "\u2581growing": 6105,
  "formin": 6106,
  "\u2581sors": 6107,
  "\u2581visit": 6108,
  "\u2581cooperate": 6109,
  "\u2581agrikola": 6110,
  "cy": 6111,
  "\u2581adegwati": 6112,
  "ana": 6113,
  "\u2581tindirizza": 6114,
  "fuljett": 6115,
  "\u2581Recommendation": 6116,
  "\u2581Funds": 6117,
  "\u2581thereto": 6118,
  "\u2581AT": 6119,
  "\u2581volum": 6120,
  "AC": 6121,
  "\u2581j\u017commu": 6122,
  "\u2581grants": 6123,
  "rispett": 6124,
  "\u2581pagamenti": 6125,
  "\u2581Case": 6126,
  "\u2581evitati": 6127,
  "\u2581105": 6128,
  "\u2581prescription": 6129,
  "level": 6130,
  "\u2581changed": 6131,
  "\u2581near": 6132,
  "\u2581vaccination": 6133,
  "kost": 6134,
  "\u2581im\u0127abba": 6135,
  "rappre\u017centanti": 6136,
  "individwi": 6137,
  "\u2581debate": 6138,
  "infu\u017cjoni": 6139,
  "irtirar": 6140,
  "\u2581to\u0127loq": 6141,
  "LI": 6142,
  "\u2581Da": 6143,
  "manutenzjoni": 6144,
  "\u2581Kapitolu": 6145,
  "\u2581transit": 6146,
  "\u2581G\u0127and": 6147,
  "\u2581concomitant": 6148,
  "g\u0127eluq": 6149,
  "\u2581val": 6150,
  "\u2581comes": 6151,
  "\u2581fitted": 6152,
  "\u2581threshold": 6153,
  "\u2581warning": 6154,
  "\u2581USE": 6155,
  "\u2581paediatric": 6156,
  "\u2581asso\u010bjata": 6157,
  "\u2581abjad": 6158,
  "\u2581actually": 6159,
  "DI": 6160,
  "tformin": 6161,
  "\u2581consists": 6162,
  "han": 6163,
  "\u2581Do\u017ca": 6164,
  "\u2581140": 6165,
  "asil": 6166,
  "\u2581Aqra": 6167,
  "\u2581corporate": 6168,
  "\u2581(10": 6169,
  "\u2581elderly": 6170,
  "\u2581jipprodu\u010bu": 6171,
  "\u2581governments": 6172,
  "supervi\u017cjoni": 6173,
  "\u2581accept": 6174,
  "inter": 6175,
  "Komunitajiet": 6176,
  "rispons": 6177,
  "\u010bentru": 6178,
  "\u2581behaviour": 6179,
  "long": 6180,
  "\u2581Con": 6181,
  "\u2581hydroxide": 6182,
  "\u2581mind": 6183,
  "Euro": 6184,
  "\u2581muscle": 6185,
  "\u2581accessible": 6186,
  "erba": 6187,
  "\u2581D\u0127ul": 6188,
  "\u2581engines": 6189,
  "\u258108": 6190,
  "\u2581Bo": 6191,
  "\u2581advanced": 6192,
  "\u258195%": 6193,
  "\u25811.6": 6194,
  "\u2581definitions": 6195,
  "\u2581enhanced": 6196,
  "\u2581so\u0121\u0121etta": 6197,
  "\u2581emendati": 6198,
  "\u2581imbag\u0127ad": 6199,
  ".3": 6200,
  "\u25813).": 6201,
  "\u2581Po": 6202,
  "\u2581seat": 6203,
  "faqar": 6204,
  "\u2581sensittivit\u00e0": 6205,
  "\u2581jikkonsisti": 6206,
  "\u2581kopert": 6207,
  "\u2581thereby": 6208,
  "talbiet": 6209,
  "\u2581CONDITIONS": 6210,
  "\u2581territorjali": 6211,
  "prop": 6212,
  "\u2581gain": 6213,
  "\u2581jg\u0127addu": 6214,
  "\u2581nifs": 6215,
  "JU": 6216,
  "\u2581anemija": 6217,
  "\u2581congregati": 6218,
  "\u2581visa": 6219,
  "\u2581kkontrollati": 6220,
  "5.": 6221,
  "ecause": 6222,
  "\u2581assessing": 6223,
  "\u2581g\u0127amlu": 6224,
  "\u2581unika": 6225,
  "Karta": 6226,
  "Peg": 6227,
  "\u25815.2": 6228,
  "Norve\u0121ja": 6229,
  "\u2581pakketti": 6230,
  "\u2581parte\u010bipazzjoni": 6231,
  "\u2581jer\u0121a": 6232,
  "\u2581e\u010b\u010bessiv": 6233,
  "\u2581varjabbli": 6234,
  "\u2581Tu\u017ca": 6235,
  "\u2581E\u017cekuttiv": 6236,
  "\u2581welcomes": 6237,
  "\u2581closed": 6238,
  "\u2581distribuzzjoni": 6239,
  "VI": 6240,
  "migrazzjoni": 6241,
  "\u2581integrati": 6242,
  "\u2581textile": 6243,
  "istokk": 6244,
  "\u2581tnejn": 6245,
  "\u2581upper": 6246,
  "\u2581managing": 6247,
  "anza": 6248,
  "iti": 6249,
  "qosor": 6250,
  "\u2581permitted": 6251,
  "tajiet": 6252,
  "mon": 6253,
  "e\u017cami": 6254,
  "\u2581Pleas": 6255,
  "\u2581assessments": 6256,
  "\u2581reinsurance": 6257,
  "51": 6258,
  "\u0127alq": 6259,
  "ept": 6260,
  "sa\u0127\u0127ithom": 6261,
  "\u2581seven": 6262,
  "\u2581jikkunsidra": 6263,
  "bqija": 6264,
  "\u2581greenhouse": 6265,
  "\u2581mudell": 6266,
  "titoli": 6267,
  "\u2581META": 6268,
  "\u2581BATCH": 6269,
  "\u2581doing": 6270,
  "Amerika": 6271,
  "\u2581CE": 6272,
  "\u2581earlier": 6273,
  "\u2581lamps": 6274,
  "\u2581spread": 6275,
  "\u2581gass": 6276,
  "\u2581allokati": 6277,
  "HIV": 6278,
  "\u2581Cyprus": 6279,
  "\u2581utli": 6280,
  "EPAR": 6281,
  "\u2581Qu": 6282,
  "\u2581[3],": 6283,
  "\u2581defence": 6284,
  "\u2581Reazzjonijiet": 6285,
  "\u2581Prodott": 6286,
  "\u2581laqg\u0127at": 6287,
  "til": 6288,
  "\u2581NCBs": 6289,
  "\u2581medji": 6290,
  "\u2581agent": 6291,
  "\u2581supervi\u017cjoni": 6292,
  "\u2581jippre\u017centa": 6293,
  "\u2581imported": 6294,
  "\u2581(6": 6295,
  "\u2581examine": 6296,
  "LE": 6297,
  "\u2581kongrega": 6298,
  "ag\u0127": 6299,
  "\u2581award": 6300,
  "cept": 6301,
  "madwar": 6302,
  "\u2581Fin": 6303,
  "Co": 6304,
  "\u258119.": 6305,
  "\u2581crucial": 6306,
  "\u2581prestazzjoni": 6307,
  "\u2581Insulin": 6308,
  "\u2581jippre\u017centaw": 6309,
  "har": 6310,
  "\u2581G\u0127oli": 6311,
  "\u2581jnaqqsu": 6312,
  "\u2581j\u017comm": 6313,
  "\u2581persunal": 6314,
  "\u2581fibri": 6315,
  "grad": 6316,
  "u\u017c": 6317,
  "ser": 6318,
  "RS": 6319,
  "\u2581useful": 6320,
  "/10": 6321,
  "\u2581internet": 6322,
  "\u2581became": 6323,
  "UR": 6324,
  "\u2581Direttur": 6325,
  "etil": 6326,
  "\u2581(2008)": 6327,
  "radju": 6328,
  "\u2581CAS": 6329,
  "\u25815.2)": 6330,
  "\u2581Africa": 6331,
  "\u2581shared": 6332,
  "Ungerija": 6333,
  "\u2581104": 6334,
  "\u2581suspensjoni": 6335,
  "\u2581protective": 6336,
  "ker": 6337,
  "tinib": 6338,
  "\u2581features": 6339,
  "NI": 6340,
  "\u2581Mediterranean": 6341,
  "\u2581thrombo": 6342,
  "PL": 6343,
  "set": 6344,
  "\u2581g\u0127and": 6345,
  "\u2581jilqa": 6346,
  "ippjanar": 6347,
  "\u2581\u017cejjed": 6348,
  "ura": 6349,
  "\u2581stima": 6350,
  "\u2581A\u0127na": 6351,
  "installazzjoni": 6352,
  ".8.": 6353,
  "istadju": 6354,
  "\u2581temporanju": 6355,
  "\u2581138": 6356,
  "\u2581Sistema": 6357,
  "ally": 6358,
  "specific": 6359,
  "IR": 6360,
  "\u2581parents": 6361,
  "\u2581skema": 6362,
  "und": 6363,
  "\u2581sewwa": 6364,
  "ZZ": 6365,
  "\u2581Czech": 6366,
  "\u2581Trans": 6367,
  "\u2581g\u0127anijiet": 6368,
  "\u2581veterinarju": 6369,
  "\u2581continuous": 6370,
  "\u2581Secretary": 6371,
  "ities": 6372,
  "\u2581istituzzjonali": 6373,
  "\u2581kimika": 6374,
  "\u2581responsabbilt\u00e0": 6375,
  "\u2581constitutes": 6376,
  "\u2581lay": 6377,
  "\u2581sitwazzjoni": 6378,
  "\u2581territorial": 6379,
  "\u2581opened": 6380,
  "\u2581fire": 6381,
  "\u2581deni": 6382,
  "\u2581fabrics": 6383,
  "alysis": 6384,
  "esklu\u017cjoni": 6385,
  "Direttur": 6386,
  "\u2581involve": 6387,
  "\u2581mandatory": 6388,
  "\u2581attwalment": 6389,
  "entrata": 6390,
  "sis": 6391,
  "\u2581culture": 6392,
  "kar": 6393,
  "\u2581Permanenti": 6394,
  "\u2581discontinued": 6395,
  "\u2581jwettaq": 6396,
  "fin": 6397,
  "\u2581inspections": 6398,
  "\u2581Pillol": 6399,
  "\u2581exceptional": 6400,
  "\u2581lesti": 6401,
  "\u2581enjoy": 6402,
  "ane": 6403,
  "wide": 6404,
  "ski": 6405,
  "\u2581MHUX": 6406,
  "\u2581edukazzjoni": 6407,
  "\u2581harmonisation": 6408,
  "\u2581miftu\u0127": 6409,
  "tmexxija": 6410,
  "\u2581Thus": 6411,
  "inizjattivi": 6412,
  "\u2581lilhom": 6413,
  "\u2581(%)": 6414,
  "ile": 6415,
  "\u2581Hungary": 6416,
  "\u2581Rev": 6417,
  "\u2581Switzerland": 6418,
  "\u2581konsiderevoli": 6419,
  "Sinjura": 6420,
  "LU": 6421,
  "It": 6422,
  "tor": 6423,
  "new": 6424,
  "\u2581delivered": 6425,
  "\u2581targeted": 6426,
  "kumitat": 6427,
  "\u2581bottle": 6428,
  "\u2581broad": 6429,
  "\u2581platform": 6430,
  "\u2581consultations": 6431,
  "\u2581tinvolvi": 6432,
  "\u2581LOTT": 6433,
  "\u2581replacement": 6434,
  "\u2581fine": 6435,
  "\u2581multilaterali": 6436,
  "\u2581erythro": 6437,
  "espo": 6438,
  "\u2581fraud": 6439,
  "\u2581mara": 6440,
  "\u258116.11.2007": 6441,
  "\u2581restrittivi": 6442,
  "\u2581jadotta": 6443,
  "\u2581kon\u0121unti": 6444,
  "\u25812).": 6445,
  "\u2581institutional": 6446,
  "\u2581reading": 6447,
  "o\u0121\u0121ett": 6448,
  "\u2581tag\u0127lim": 6449,
  "\u2581deficit": 6450,
  "TRA": 6451,
  "Eurosistema": 6452,
  "\u2581talk": 6453,
  "tikketta": 6454,
  "\u0127lasijiet": 6455,
  "\u2581figures": 6456,
  "xahar": 6457,
  "\u2581flows": 6458,
  "\u2581impenn": 6459,
  "\u2581stipulata": 6460,
  "\u2581transfers": 6461,
  "02": 6462,
  "uk": 6463,
  "\u2581bound": 6464,
  "\u2581Rari": 6465,
  "\u2581sesswali": 6466,
  "vol": 6467,
  "\u2581tirreferi": 6468,
  "\u258118.": 6469,
  "\u2581ristrutturar": 6470,
  "\u2581suppliers": 6471,
  "\u2581affecting": 6472,
  "\u258170%": 6473,
  "\u2581problema": 6474,
  "\u2581resource": 6475,
  "\u2581tidde\u010biedi": 6476,
  "\u2581carriers": 6477,
  "\u2581multilateral": 6478,
  "\u2581Ix": 6479,
  "gh": 6480,
  "\u2581delegati": 6481,
  "\u25812020.": 6482,
  "\u2581mouth": 6483,
  "\u25811994": 6484,
  "\u2581Authorisation": 6485,
  "\u2581count": 6486,
  "\u2581Ti": 6487,
  "OT": 6488,
  "iskola": 6489,
  "\u2581eu": 6490,
  "mill": 6491,
  "\u2581Point": 6492,
  "ring": 6493,
  "\u2581imsej\u0127a": 6494,
  "\u2581Navigation": 6495,
  "\u2581jir\u010bievi": 6496,
  "\u2581spe\u010bifikata": 6497,
  "definizzjonijiet": 6498,
  "preparazzjoni": 6499,
  "car": 6500,
  "tas": 6501,
  "2000": 6502,
  "ema": 6503,
  "\u2581acquis": 6504,
  "\u2581\u017c\u017cid": 6505,
  "\u2581collateral": 6506,
  "\u2581jafu": 6507,
  "Euratom": 6508,
  "\u2581Wie\u0127ed": 6509,
  "\u25815.3": 6510,
  "\u00ed": 6511,
  "\u2581su\u010b\u010bess": 6512,
  "6.": 6513,
  "\u2581Class": 6514,
  "\u2581Employment": 6515,
  "tre": 6516,
  "\u2581sever": 6517,
  "\u2581kategorija": 6518,
  "\u25813.5": 6519,
  "\u2581influwenza": 6520,
  "\u2581conflict": 6521,
  "\u2581Company": 6522,
  "Text": 6523,
  "83": 6524,
  "\u2581Tri": 6525,
  "ves": 6526,
  "virus": 6527,
  "\u2581elimination": 6528,
  "\u2581flexibility": 6529,
  "TP": 6530,
  "ERA": 6531,
  "Fondi": 6532,
  "\u2581qawwa": 6533,
  "\u2581setg\u0127u": 6534,
  "ses": 6535,
  "\u2581j\u017cidu": 6536,
  "\u2581appropriation": 6537,
  "\u2581mag\u0127ha": 6538,
  "-2006": 6539,
  "re\u0121im": 6540,
  "\u2581manufacturers": 6541,
  "\u2581PRODUCTS": 6542,
  "\u2581exclusion": 6543,
  "\u2581Operator": 6544,
  "mhux": 6545,
  "\u2581Pro\u010bedura": 6546,
  "\u2581partial": 6547,
  "immani\u0121\u0121jar": 6548,
  "s\u0127ubija": 6549,
  "hemm": 6550,
  "\u2581default": 6551,
  "\u25812009/": 6552,
  "sezzjoni": 6553,
  "\u2581Tip": 6554,
  "\u2581concrete": 6555,
  "\u2581sentence": 6556,
  "\u2581representing": 6557,
  "jaqsmu": 6558,
  "\u2581seta": 6559,
  "\u2581stored": 6560,
  "\u2581emenda": 6561,
  "\u2581appears": 6562,
  "\u2581armonizzati": 6563,
  "\u2581urine": 6564,
  "\u2581coordinated": 6565,
  "ENT": 6566,
  "\u2581allowances": 6567,
  "\u2581jemmen": 6568,
  "\u2581heating": 6569,
  "\u2581kW": 6570,
  "\u2581liberu": 6571,
  "acquis": 6572,
  "awditjar": 6573,
  "\u2581ICT": 6574,
  "\u2581jadottaw": 6575,
  "intenzjoni": 6576,
  "\u2581Subject": 6577,
  "\u2581officials": 6578,
  "\u2581jitwaqqaf": 6579,
  "\u2581resistance": 6580,
  "SIS": 6581,
  "\u2581tossi\u010bit\u00e0": 6582,
  "\u2581Greek": 6583,
  "\u2581marked": 6584,
  "eh": 6585,
  "\u2581aged": 6586,
  "2012": 6587,
  "\u2581Control": 6588,
  "administration": 6589,
  "\u2581container": 6590,
  "\u2581nkunu": 6591,
  "\u2581airports": 6592,
  "\u2581kkunsidrata": 6593,
  "\u2581(95%": 6594,
  "\u2581Imbag\u0127ad": 6595,
  "\u2581ri\u010betta": 6596,
  "favi": 6597,
  "like": 6598,
  "\u2581Ministry": 6599,
  "\u2581Ms": 6600,
  "\u2581difficulty": 6601,
  "\u2581goals": 6602,
  "\u2581rikonoxxuti": 6603,
  "\u2581r\u010bevew": 6604,
  "xiex": 6605,
  "\u2581German": 6606,
  "\u2581actors": 6607,
  "ev": 6608,
  "law": 6609,
  "\u2581List": 6610,
  "\u2581onlajn": 6611,
  "\u2581Agriculture": 6612,
  "\u2581Maltese": 6613,
  "\u2581taxxa": 6614,
  "\u2581i\u017cg\u0127ar": 6615,
  "\u2581believe": 6616,
  "\u2581[5]": 6617,
  "\u2581expert": 6618,
  "\u2581rappurtar": 6619,
  "\u2581valida": 6620,
  "\u2581EX": 6621,
  "\u2581jappo\u0121\u0121ja": 6622,
  "\u2581programming": 6623,
  "\u2581youth": 6624,
  "AM": 6625,
  "\u2581pilot": 6626,
  "\u2581210": 6627,
  "\u2581African": 6628,
  "\u2581j\u017cid": 6629,
  "\u2581restricted": 6630,
  "\u2581solely": 6631,
  "penja": 6632,
  "form": 6633,
  "\u2581techniques": 6634,
  "\u2581Head": 6635,
  "\u2581kampjun": 6636,
  "karti": 6637,
  "fold": 6638,
  "\u2581Deskrizzjoni": 6639,
  "\u2581obbligi": 6640,
  "\u2581peg": 6641,
  "ras": 6642,
  "\u2581fee": 6643,
  "missjoni": 6644,
  "AQ": 6645,
  "\u2581sense": 6646,
  "\u2581ra\u0121el": 6647,
  "\u25814.6": 6648,
  "\u2581tara": 6649,
  "\u2581Representative": 6650,
  "\u2581oils": 6651,
  "\u2581prohibited": 6652,
  "ivvja\u0121\u0121ar": 6653,
  "\u2581adattati": 6654,
  "effettivit\u00e0": 6655,
  "involviment": 6656,
  "\u2581klinikament": 6657,
  "\u0127lief": 6658,
  "\u2581card": 6659,
  "artis": 6660,
  "siti": 6661,
  "\u2581room": 6662,
  "\u2581kkalkulat": 6663,
  "\u2581unemployment": 6664,
  "\u2581territories": 6665,
  "\u0127ames": 6666,
  "\u2581lamp": 6667,
  "ship": 6668,
  "\u2581connected": 6669,
  "\u2581household": 6670,
  "nota": 6671,
  "\u2581Many": 6672,
  "\u2581variable": 6673,
  "qag\u0127da": 6674,
  "\u2581MT": 6675,
  "MM": 6676,
  "\u2581Up": 6677,
  "\u2581conversion": 6678,
  "\u2581customer": 6679,
  "\u25811,000": 6680,
  "\u2581identity": 6681,
  "\u2581neither": 6682,
  "\u2581stay": 6683,
  "\u2581monohydrate": 6684,
  "\u2581s\u0127ab": 6685,
  "\u00e5": 6686,
  "\u2581Internal": 6687,
  "\u2581students": 6688,
  "-2005": 6689,
  "\u2581word": 6690,
  "bord": 6691,
  "od": 6692,
  "\u2581bdiet": 6693,
  "\u2581fast": 6694,
  "\u2581ships": 6695,
  "\u2581\u010aini\u017ci": 6696,
  "600": 6697,
  "\u2581authorisations": 6698,
  "ra\u0121uni": 6699,
  "bin": 6700,
  "irrispettivament": 6701,
  "\u2581Italian": 6702,
  "\u2581Ab": 6703,
  "\u00fc": 6704,
  "\u2581jnaqqas": 6705,
  "cur": 6706,
  "\u2581concept": 6707,
  "\u2581s\u0127ubija": 6708,
  "libert\u00e0": 6709,
  "\u2581jinbidlu": 6710,
  "SC": 6711,
  "\u2581taxes": 6712,
  "ung": 6713,
  "\u2581flat": 6714,
  "53": 6715,
  "\u2581North": 6716,
  "\u2581Sal": 6717,
  "\u2581instead": 6718,
  "\u2581itwal": 6719,
  "\u2581kapsuli": 6720,
  "\u2581delegation": 6721,
  "Punent": 6722,
  "fa\u010bilitajiet": 6723,
  "\u2581spjegat": 6724,
  "benefi\u010bjarju": 6725,
  "\u2581es": 6726,
  "enofo": 6727,
  "\u2581Most": 6728,
  "\u2581Product": 6729,
  "\u2581operaturi": 6730,
  "\u258121.": 6731,
  "\u2581fidi": 6732,
  "\u2581occurs": 6733,
  "get": 6734,
  "zer": 6735,
  "\u2581adegwata": 6736,
  "\u2581vivo": 6737,
  "\u2581\u2193": 6738,
  "lor": 6739,
  "\u2581TV": 6740,
  "\u2581sodisfatti": 6741,
  "\u2581kategoriji": 6742,
  "\u2581sse\u0127\u0127": 6743,
  "valutazzjonijiet": 6744,
  "\u2581tikkonsisti": 6745,
  "\u2581jidda\u0127\u0127al": 6746,
  "chi": 6747,
  "\u2581Can": 6748,
  "ez": 6749,
  "\u2581g\u0127odod": 6750,
  "Suppliment": 6751,
  "\u2581ed": 6752,
  "feeding": 6753,
  "\u2581deposits": 6754,
  "-2020": 6755,
  "\u2581max": 6756,
  "\u2581thought": 6757,
  "\u2581fa\u010bilment": 6758,
  "\u2581xa\u0127am": 6759,
  "\u2581HCV": 6760,
  "\u25812005,": 6761,
  "\u2581ppubblikata": 6762,
  "\u2581try": 6763,
  "\u2581jiddependi": 6764,
  "\u2581inhu": 6765,
  "SA": 6766,
  "platin": 6767,
  "\u2581jkopru": 6768,
  "\u2581Supplement": 6769,
  "\u2581Valur": 6770,
  "\u2581expertise": 6771,
  "Pajji\u017ci": 6772,
  "\u2581inhibitor": 6773,
  "Li\u0121i": 6774,
  "\u2581kmieni": 6775,
  "ult": 6776,
  "\u2581circulation": 6777,
  "\u2581perikolu\u017ci": 6778,
  "Finlandja": 6779,
  "\u2581a\u010bidu": 6780,
  "\u2581equipped": 6781,
  "\u2581sight": 6782,
  "\u2581adapt": 6783,
  "\u2581hearing": 6784,
  "sid": 6785,
  "\u2581Magni": 6786,
  "\u2581Re\u0121jonali": 6787,
  "\u2581tessuti": 6788,
  "ispirtu": 6789,
  "\u2581jkopri": 6790,
  "\u2581121": 6791,
  "qorti": 6792,
  "\u2581ar": 6793,
  "\u2581preparing": 6794,
  "ence": 6795,
  "\u2581excipients": 6796,
  "qui": 6797,
  "\u2581beda": 6798,
  "\u2581reductions": 6799,
  "rat": 6800,
  "\u2581\u010bari": 6801,
  "\u2581requiring": 6802,
  "91": 6803,
  "\u25816%": 6804,
  "\u2581tippromwovi": 6805,
  "\u2581jitwettaq": 6806,
  "\u2581postijiet": 6807,
  "\u2581rati": 6808,
  "\u2581nef\u0127a": 6809,
  "low": 6810,
  "\u2581segwit": 6811,
  "\u2581Tev": 6812,
  "\u2581definitive": 6813,
  "\u2581esportatur": 6814,
  "\u2581mekkani\u017cmi": 6815,
  "\u2581Consequently": 6816,
  "\u2581fuels": 6817,
  "\u2581insufficient": 6818,
  "\u2581operated": 6819,
  "av": 6820,
  "\u25814.8": 6821,
  "\u2581e\u017catt": 6822,
  "\u2581Ne": 6823,
  "\u2581bini": 6824,
  "differenzi": 6825,
  "\u258107": 6826,
  "\u2581Legal": 6827,
  "\u2581PHARMACEUTICAL": 6828,
  "\u2581translation": 6829,
  "/1": 6830,
  "5)": 6831,
  "\u2581tqeg\u0127id": 6832,
  "aqwa": 6833,
  "\u2581espo\u017cizzjoni": 6834,
  "\u2581swelling": 6835,
  "ess": 6836,
  "\u2581incentives": 6837,
  "\u2581iqis": 6838,
  "\u2581g\u0127amlet": 6839,
  "\u00bf": 6840,
  "Turkija": 6841,
  "\u2581Go": 6842,
  "\u2581differenza": 6843,
  "\u2581DETENTUR": 6844,
  "\u2581exposed": 6845,
  "e\u010b\u010bezzjoni": 6846,
  "\u2581Conference": 6847,
  "\u2581Rural": 6848,
  "8.": 6849,
  "\u2581chapter": 6850,
  "ice": 6851,
  "Eurostat": 6852,
  "flussi": 6853,
  "63": 6854,
  "kontribut": 6855,
  "kambju": 6856,
  "\u2581nausea": 6857,
  "lhom": 6858,
  "\u2581conferred": 6859,
  "\u2581jirregolaw": 6860,
  "\u258175%": 6861,
  "\u2581affidabbli": 6862,
  "\u2581maintaining": 6863,
  "\u2581DNA": 6864,
  "\u2581mg\u0127ammra": 6865,
  "\u010d": 6866,
  "\u2581reliable": 6867,
  "\u0438": 6868,
  "e\u017cekuzzjoni": 6869,
  "\u2581hot": 6870,
  "\u2581s\u0127a\u0127": 6871,
  "\u2581traditional": 6872,
  "gave": 6873,
  "\u2581Take": 6874,
  "\u2581pprovdut": 6875,
  "\u2581seed": 6876,
  "\u2581agriculture": 6877,
  "\u2581indikaturi": 6878,
  "oxy": 6879,
  "pdf": 6880,
  "plastik": 6881,
  "\u2581Bar": 6882,
  "\u2581discrimination": 6883,
  "\u2581learn": 6884,
  "\u2581Proposal": 6885,
  "\u2581define": 6886,
  "\u2581TAD": 6887,
  "\u2581esti\u017c": 6888,
  "dd": 6889,
  "\u010aentru": 6890,
  "\u2581bilan\u010b": 6891,
  "\u2581session": 6892,
  "\u2581Commissioner": 6893,
  "\u2581consistency": 6894,
  "Ma": 6895,
  "\u03bc": 6896,
  "\u2581g\u0127odda": 6897,
  "sada": 6898,
  "\u2581setturi": 6899,
  "disponibbilt\u00e0": 6900,
  "iel": 6901,
  "openi": 6902,
  "\u25816.1": 6903,
  "ATION": 6904,
  "pharm": 6905,
  "ristrutturar": 6906,
  "\u25815.1)": 6907,
  "\u2581Mi\u017curi": 6908,
  "\u2581crime": 6909,
  "GA": 6910,
  "az": 6911,
  "\u2581jer\u0121g\u0127u": 6912,
  "a\u0121enda": 6913,
  "jon": 6914,
  "\u2581investor": 6915,
  "Indja": 6916,
  "\u2581conjunction": 6917,
  "\u2581resulted": 6918,
  "istruzzjonijiet": 6919,
  "8\u00b0": 6920,
  "a\u0121\u0121ustament": 6921,
  "pagament": 6922,
  "\u2581g\u0127id": 6923,
  "\u2581formula": 6924,
  "\u010bertifikazzjoni": 6925,
  "\u258129.": 6926,
  "ursuant": 6927,
  "MO": 6928,
  "\u2581PRODOTTI": 6929,
  "\u2581JEKK": 6930,
  "\u2581outer": 6931,
  "\u2581Operatur": 6932,
  "\u2581ji\u0121ri": 6933,
  "\u2581validity": 6934,
  ".2010,": 6935,
  "asso\u010bjazzjoni": 6936,
  "oma": 6937,
  "\u2581IMO": 6938,
  "\u2581revision": 6939,
  "\u2581vinkolanti": 6940,
  "\u2581Dr": 6941,
  "\u2581integrity": 6942,
  "\u2581applicants": 6943,
  ".7.": 6944,
  "\u2581Even": 6945,
  "\u2581su": 6946,
  "Kummissarju": 6947,
  "\u2581eritro": 6948,
  "\u2581moderat": 6949,
  "eq": 6950,
  "\u00f6": 6951,
  "\u2581epatik": 6952,
  "\u2581proportionate": 6953,
  "\u2581told": 6954,
  "che": 6955,
  "\u2581til\u0127aq": 6956,
  "Presidenza": 6957,
  "utent": 6958,
  "\u2581chosen": 6959,
  "\u2581integrat": 6960,
  "\u2581\u017cviluppat": 6961,
  "u\u017ci": 6962,
  "9)": 6963,
  "\u2581B\u0127al": 6964,
  "\u2581frequently": 6965,
  "\u2581centres": 6966,
  "\u2581Mix": 6967,
  "\u2581names": 6968,
  "ron": 6969,
  "\u2581causes": 6970,
  "reatinine": 6971,
  "tek": 6972,
  "\u2581easily": 6973,
  "\u2581Ha": 6974,
  "\u2581approaches": 6975,
  "MI": 6976,
  "\u2581inject": 6977,
  "\u2581ambjent": 6978,
  "\u2581appeal": 6979,
  "\u2581disorder": 6980,
  "\u2581lodged": 6981,
  "ke": 6982,
  "duly": 6983,
  "sors": 6984,
  "\u2581Rigward": 6985,
  "\u2581miksijin": 6986,
  "responsabbilta": 6987,
  "tjur": 6988,
  "intestinal": 6989,
  "\u2581kultant": 6990,
  "\u2581games": 6991,
  "\u2581ppubblikati": 6992,
  "\u2581recitals": 6993,
  "quddiem": 6994,
  "\u2581copy": 6995,
  "\u2581poli": 6996,
  "\u2581compatibility": 6997,
  "\u2581hair": 6998,
  "\u2581jonqos": 6999,
  "\u2581spezzjoni": 7000,
  "\u2581understand": 7001,
  "6)": 7002,
  "indeboliment": 7003,
  "\u2581pendenti": 7004,
  "\u2581spe\u010bi": 7005,
  "\u258124.": 7006,
  "\u2581Ni": 7007,
  "\u00e4": 7008,
  "\u2581deadline": 7009,
  "\u2581dettalji": 7010,
  "\u2581Charter": 7011,
  "\u2581mobbli": 7012,
  "\u2581references": 7013,
  "sejbiet": 7014,
  "\u2581aware": 7015,
  "Nofsinhar": 7016,
  "\u2581box": 7017,
  "ou": 7018,
  "\u2581publish": 7019,
  "\u2581places": 7020,
  "a\u010bidu": 7021,
  "\u2581Sar": 7022,
  "ieg\u0127": 7023,
  "\u2581completely": 7024,
  "62": 7025,
  "governanza": 7026,
  "\u2581angio": 7027,
  "\u2581records": 7028,
  "ksur": 7029,
  "\u2581Turkey": 7030,
  "\u2581generated": 7031,
  "\u2581Int": 7032,
  "\u25811992": 7033,
  "ita": 7034,
  "\u2581dovut": 7035,
  "ear": 7036,
  "ert": 7037,
  "\u2581130": 7038,
  "\u2581taqbe\u017c": 7039,
  "\u2581\u0127alib": 7040,
  "\u2581jippromwovu": 7041,
  "%": 7042,
  "\u2581jir": 7043,
  "\u2581excess": 7044,
  "\u2581FARMA\u010aEWTI": 7045,
  "tnejn": 7046,
  "\u2581send": 7047,
  "\u2581vini": 7048,
  "\u2581regolarment": 7049,
  "tron": 7050,
  "\u2581compounds": 7051,
  "\u2581repeated": 7052,
  "nofs": 7053,
  "produttur": 7054,
  "\u2581\u0127xejjex": 7055,
  "\u2581separat": 7056,
  "\u2581width": 7057,
  "\u2581ssodisfati": 7058,
  "\u0121er": 7059,
  "\u2581interpretation": 7060,
  "ri\u017coluzzjoni": 7061,
  "\u2581contractual": 7062,
  "karozzi": 7063,
  "\u2581represented": 7064,
  "rilevanza": 7065,
  "\u2581awtorizzata": 7066,
  "\u2581Kap": 7067,
  "\u2581links": 7068,
  "\u2581evitata": 7069,
  "\u2581driver": 7070,
  "\u2581e\u017cami": 7071,
  "\u2581Pure": 7072,
  "Pro": 7073,
  "ta\u0127lita": 7074,
  "300": 7075,
  "\u25812017/1": 7076,
  "\u2581tis": 7077,
  "\u2581prin\u010bipji": 7078,
  "\u2581modi": 7079,
  "\u2581subsequently": 7080,
  "\u2581kkunsidraw": 7081,
  "ace": 7082,
  "rja": 7083,
  "\u2581jipprevedi": 7084,
  "\u2581\u010belloli": 7085,
  "premessi": 7086,
  "\u2581Reference": 7087,
  "\u2191": 7088,
  "\u2581jo\u0127loq": 7089,
  "2010": 7090,
  "\u2581\u0127ajjin": 7091,
  "influwenza": 7092,
  "\u2581maturity": 7093,
  "\u25817%": 7094,
  "\u2581bi\u010b\u010ba": 7095,
  "\u2581sezzjonijiet": 7096,
  "board": 7097,
  "\u25814%": 7098,
  "\u2581osservazzjoni": 7099,
  "ese": 7100,
  "evidenza": 7101,
  "\u2581news": 7102,
  "FF": 7103,
  "\u2581st": 7104,
  "ajruporti": 7105,
  "bl": 7106,
  "metodolo\u0121ija": 7107,
  "\u2581therapeutic": 7108,
  "\u2581eyes": 7109,
  "prova": 7110,
  "\u2581G\u0126AM": 7111,
  "gal": 7112,
  "nifs": 7113,
  "adulti": 7114,
  "\u2581addressing": 7115,
  "\u2581influenza": 7116,
  "\u2581specification": 7117,
  "\u2581task": 7118,
  "\u2581calcium": 7119,
  "ris": 7120,
  "\u2581investigations": 7121,
  "\u2581kopja": 7122,
  "\u25812017,": 7123,
  "ECB": 7124,
  "\u2581Tag\u0127mir": 7125,
  "\u2581foodstuffs": 7126,
  "pir": 7127,
  "\u2581mode": 7128,
  "\u2581software": 7129,
  "Impri\u017ca": 7130,
  "\u2581Figure": 7131,
  "\u2581nota": 7132,
  "\u2581titwettaq": 7133,
  "IMI": 7134,
  "\u2581ante": 7135,
  "\u2581add": 7136,
  "\u2581\u0121eografi\u010bi": 7137,
  "\u2581ammonti": 7138,
  "\u00a7": 7139,
  "\u2581therein": 7140,
  "kultura": 7141,
  "obbligazzjoni": 7142,
  "\u2581(*)": 7143,
  "\u2581Studju": 7144,
  "\u2581a\u010b\u010bettabbli": 7145,
  "\u2581awrina": 7146,
  "\u2581potentially": 7147,
  "EF": 7148,
  "fattur": 7149,
  "medi\u010bini": 7150,
  "\u2581Em": 7151,
  "\u2581segwiti": 7152,
  "\u2581BRA": 7153,
  "\u2581vina": 7154,
  "b\u0127al": 7155,
  "\u2581Kooperazzjoni": 7156,
  "materja": 7157,
  "impatti": 7158,
  "ps": 7159,
  "way": 7160,
  "interoperability": 7161,
  "\u2581automatic": 7162,
  "are": 7163,
  "ates": 7164,
  "fit": 7165,
  "lf": 7166,
  "\u2581operattiva": 7167,
  "\u2581choose": 7168,
  "li\u010benzji": 7169,
  "\u2581Opti": 7170,
  "\u2581soil": 7171,
  "atturi": 7172,
  "len": 7173,
  "\u2581diarrhoea": 7174,
  "\u25813.4": 7175,
  "\u2581abnormal": 7176,
  "\u2581jaqblu": 7177,
  "\u2581(<": 7178,
  "XX": 7179,
  "\u2581harm": 7180,
  "\u0127\u017cen": 7181,
  "tens": 7182,
  "\u2581fond": 7183,
  "injetta": 7184,
  "\u2581city": 7185,
  "\u2581manage": 7186,
  "\u2581rejected": 7187,
  "7)": 7188,
  "\u0435": 7189,
  "\u2581djalogu": 7190,
  "HA": 7191,
  "\u2581Nomenclature": 7192,
  "\u2581imsejja\u0127": 7193,
  "\u2581\u017cejt": 7194,
  "butyl": 7195,
  "\u2581Str": 7196,
  "\u2581esponiment": 7197,
  "\u2581navigation": 7198,
  "konsegwenzi": 7199,
  "ros": 7200,
  "sider": 7201,
  "roti": 7202,
  "\u2581drawing": 7203,
  "\u2581belt": 7204,
  "opportunit\u00e0": 7205,
  "\u2581goal": 7206,
  "\u2581t\u0127ossok": 7207,
  "enija": 7208,
  "mekkani\u017cmi": 7209,
  "\u2581destination": 7210,
  "\u2581veterinarji": 7211,
  "emea": 7212,
  "li\u010benzja": 7213,
  "\u2581separately": 7214,
  "\u2581improvements": 7215,
  "\u2581(3).": 7216,
  ".11": 7217,
  "\u2581minor": 7218,
  "\u2581despi": 7219,
  "INN": 7220,
  "\u2581Rurali": 7221,
  "\u2581ppre\u017centata": 7222,
  "\u2581sampled": 7223,
  "\u2581Innovation": 7224,
  "\u2581\u0127a\u017cna": 7225,
  "\u2581i\u017commu": 7226,
  "/2": 7227,
  "rimettar": 7228,
  "\u2581discussion": 7229,
  "\u25812006.": 7230,
  "\u2581pilota": 7231,
  "Agrikoltura": 7232,
  "\u2581enabling": 7233,
  "\u2581tikkostitwixxi": 7234,
  "rate": 7235,
  "tixrid": 7236,
  "wali": 7237,
  "\u2581complaint": 7238,
  "compliance": 7239,
  "epo": 7240,
  "\u2581Undertaking": 7241,
  "iskeda": 7242,
  "CF": 7243,
  "qawwa": 7244,
  "\u2581antidumping": 7245,
  "\u2581weekly": 7246,
  "BEI": 7247,
  "ero": 7248,
  "\u258109": 7249,
  "\u2581Pan": 7250,
  "\u2581indent": 7251,
  "\u2581pH": 7252,
  "\u2581verament": 7253,
  "\u2581Iran": 7254,
  "\u2581exclusively": 7255,
  "\u2581English": 7256,
  "\u2581Path": 7257,
  "\u2581wiesa": 7258,
  "por": 7259,
  "trab": 7260,
  "\u25811.7": 7261,
  "\u2581XI": 7262,
  "\u2581asso\u010bjazzjoni": 7263,
  "\u2581netwerks": 7264,
  "\u2581obbligu": 7265,
  "\u2581ADMINISTRATION": 7266,
  "\u2581hour": 7267,
  "PS": 7268,
  "\u2581EIB": 7269,
  "riassigurazzjoni": 7270,
  "versus": 7271,
  "\u2581titwaqqaf": 7272,
  "SD": 7273,
  "\u2581Valutazzjoni": 7274,
  "\u2581arrangement": 7275,
  "\u2581118": 7276,
  "\u2581vital": 7277,
  "\u2581penalties": 7278,
  "\u2581residenza": 7279,
  "do\u017ci": 7280,
  "ala": 7281,
  "\u2581wish": 7282,
  "financial": 7283,
  "\u2581sign": 7284,
  "\u2581whereby": 7285,
  "eti\u010bi": 7286,
  "\u2581acquisition": 7287,
  "\u2581AG": 7288,
  "\u2581worked": 7289,
  "pen": 7290,
  "\u2581execution": 7291,
  "\u2581offers": 7292,
  "\u2581a\u0121\u0121ornata": 7293,
  "\u2581Dik": 7294,
  "\u2581intelli\u0121enti": 7295,
  "Tramuntana": 7296,
  "diac": 7297,
  "mid": 7298,
  "\u2581ownership": 7299,
  "\u2581EFSA": 7300,
  "kaw\u017ca": 7301,
  "\u2581HR": 7302,
  "\u2581organizzata": 7303,
  "\u2581envisaged": 7304,
  "\u2581sexual": 7305,
  "\u2581simple": 7306,
  "\u2581surgery": 7307,
  "\u2581garanziji": 7308,
  "\u00c4": 7309,
  "\u2581minerali": 7310,
  "sintomi": 7311,
  "\u258185%": 7312,
  "\u2581primarja": 7313,
  "\u0127adid": 7314,
  "\u2581dangerous": 7315,
  "\u2581idea": 7316,
  "\u2581jikkon\u010berna": 7317,
  "forom": 7318,
  "\u2581timely": 7319,
  "\u2581\u0121iex": 7320,
  "\u2581rre\u0121istrati": 7321,
  "opinjonijiet": 7322,
  "\u2581installations": 7323,
  "\u2581variety": 7324,
  "\u0121img\u0127a": 7325,
  "\u2581bear": 7326,
  "toroq": 7327,
  "\u2581usa": 7328,
  "\u25814.5)": 7329,
  "\u2581ik": 7330,
  "\u2581tissa\u0127\u0127a\u0127": 7331,
  "81": 7332,
  "\u2581deroga": 7333,
  "\u2581renewal": 7334,
  "\u2581\u017cgur": 7335,
  "\u2581xjentifi\u010bi": 7336,
  "\u2581komponent": 7337,
  "\u2581relazzjoni": 7338,
  "AG": 7339,
  "\u2581Land": 7340,
  "af": 7341,
  "\u2581green": 7342,
  "\u2581timplimenta": 7343,
  "ator": 7344,
  "\u2581ATC": 7345,
  "\u2581temporanja": 7346,
  "\u25812004,": 7347,
  "\u2581implimentata": 7348,
  "\u2581wriet": 7349,
  "\u2581netwerk": 7350,
  "\u2581ghal": 7351,
  "\u2581twaqqaf": 7352,
  "\u2581102": 7353,
  "\u2581detail": 7354,
  "\u2581Cohesion": 7355,
  "\u2581orizzontali": 7356,
  "postijiet": 7357,
  "\u2581Doganali": 7358,
  "\u2581rapidly": 7359,
  "esperti": 7360,
  "Trasport": 7361,
  "\u2581t\u0127addem": 7362,
  "\u2581\u0121enituri": 7363,
  "kampjuni": 7364,
  "\u2581jidhirx": 7365,
  "\u2581proposes": 7366,
  "\u25818%": 7367,
  "\u2581miksub": 7368,
  "\u2581yellow": 7369,
  "\u25812007-2013": 7370,
  "\u25816.2": 7371,
  "\u2581unique": 7372,
  "bdiewa": 7373,
  "\u2581industries": 7374,
  "\u2581klassi": 7375,
  "\u2581usual": 7376,
  "ispe\u010bijiet": 7377,
  "\u00e0": 7378,
  "\u2581consequence": 7379,
  "iconazole": 7380,
  "\u2581Business": 7381,
  "\u2581bdew": 7382,
  "\u2581dubju": 7383,
  "identit\u00e0": 7384,
  "9%)": 7385,
  "\u2581futur": 7386,
  "\u2581modification": 7387,
  "\u2581ibba\u017cati": 7388,
  "\u2581komparabbli": 7389,
  "\u2581observations": 7390,
  "risk": 7391,
  "\u2581XX": 7392,
  "\u2581ri\u010benti": 7393,
  "parametri": 7394,
  "\u2581contributing": 7395,
  "\u2581lok": 7396,
  "\u2581\u010bertifikazzjoni": 7397,
  "\u2581object": 7398,
  "\u2581imsemmijin": 7399,
  "ica": 7400,
  "max": 7401,
  "\u2581railway": 7402,
  "sir": 7403,
  "\u0127oss": 7404,
  "insulina": 7405,
  "\u258110)": 7406,
  "\u2581RO": 7407,
  "\u2581accompanying": 7408,
  "\u2581naf": 7409,
  "uni": 7410,
  "\u2581determinat": 7411,
  "\u2581officer": 7412,
  "\u0127a": 7413,
  "\u2581va\u010b\u010bin": 7414,
  "\u2581represents": 7415,
  "\u2581coated": 7416,
  "kompetenzi": 7417,
  "\u2581removal": 7418,
  "\u2581settorjali": 7419,
  "\u2581She": 7420,
  "\u2581monetarja": 7421,
  "\u2581salt": 7422,
  "\u2581ishma": 7423,
  "ub": 7424,
  "i\u017cmu": 7425,
  "\u2581123": 7426,
  "\u2581India": 7427,
  "\u2581Lista": 7428,
  "g\u0127oxrin": 7429,
  "\u2581bijo": 7430,
  "\u2581hydrochloride": 7431,
  "ants": 7432,
  "\u2581jse\u0127\u0127": 7433,
  "\u2581infjammazzjoni": 7434,
  "aqq": 7435,
  "og": 7436,
  "\u2581Marketing": 7437,
  "\u2581plastic": 7438,
  "esponiment": 7439,
  "po\u017cizzjonijiet": 7440,
  "\u2581merkanzija": 7441,
  "\u2581housing": 7442,
  "\u2581prolonged": 7443,
  "\u2581bog\u0127od": 7444,
  "\u2581haemo": 7445,
  "\u2581trasparenza": 7446,
  "ments": 7447,
  "\u2581overdose": 7448,
  "\u2581Annual": 7449,
  "\u2581holdings": 7450,
  "dal": 7451,
  "\u2581lists": 7452,
  "\u2581ir\u0121iel": 7453,
  "\u2581volumes": 7454,
  "\u2581jenfasizza": 7455,
  "\u2581Latvia": 7456,
  "OL": 7457,
  "\u2581mikrogramm": 7458,
  "sorsi": 7459,
  "press": 7460,
  "\u2581sodisfa\u010benti": 7461,
  "\u2581spe\u010bifikament": 7462,
  "\u2581ur\u0121enti": 7463,
  "\u2581Gu": 7464,
  "\u2581Su": 7465,
  "Al": 7466,
  "\u2581female": 7467,
  "\u2581acceptable": 7468,
  "\u2581baqa": 7469,
  "\u2581hope": 7470,
  "\u2581kummer\u010b": 7471,
  "ble": 7472,
  "\u2581koerenti": 7473,
  "\u2581importers": 7474,
  "Litwanja": 7475,
  "\u2581principal": 7476,
  "\u2581lilek": 7477,
  "\u2581Rekwi\u017citi": 7478,
  "\u2581intervent": 7479,
  "\u2581Je\u0127tie\u0121": 7480,
  "\u010belloli": 7481,
  "\u2581Staff": 7482,
  "\u2581frozen": 7483,
  "\u2581Bio": 7484,
  "\u2581launch": 7485,
  "\u2581legally": 7486,
  "\u2581preceding": 7487,
  "forza": 7488,
  "\u2581ready": 7489,
  "\u2581whereas": 7490,
  "\u258128,": 7491,
  "\u2581g\u0127axar": 7492,
  "\u2581propose": 7493,
  "\u2581Store": 7494,
  "stat": 7495,
  "\u2581coverage": 7496,
  "aluminju": 7497,
  "\u2581index": 7498,
  "\u2581WARNING": 7499,
  "lingwi": 7500,
  "\u2581ng\u0127atat": 7501,
  "\u010bertifikati": 7502,
  "\u2581physician": 7503,
  "manifatturi": 7504,
  "kunjett": 7505,
  "\u2581Jan": 7506,
  "\u2581Neo": 7507,
  "\u2581SME": 7508,
  "economic": 7509,
  "\u2581jmorru": 7510,
  "\u2581Dispo\u017cizzjoni": 7511,
  "\u2581\u0121uridi\u010bi": 7512,
  "\u2581vulnerable": 7513,
  "\u2581file": 7514,
  "Servizz": 7515,
  "poieti": 7516,
  "\u2581dedicated": 7517,
  "Russja": 7518,
  "\u2581Agricultural": 7519,
  "\u2581certified": 7520,
  "\u2581klieb": 7521,
  "000": 7522,
  "\u2581continues": 7523,
  "\u2581success": 7524,
  "ash": 7525,
  "\u2581Ap": 7526,
  "\u2581Paragraph": 7527,
  "mument": 7528,
  "xejn": 7529,
  "\u2581kombinazzjoni": 7530,
  "\u2581zones": 7531,
  "\u2581survival": 7532,
  "\u2581[8]": 7533,
  "\u2581hoc": 7534,
  "\u2581pro\u010bessi": 7535,
  "\u2581adatt": 7536,
  "\u2581jirriflettu": 7537,
  "\u2581ma\u0121\u0121uri": 7538,
  "\u2581nhar": 7539,
  "\u2581(2007)": 7540,
  "kummer\u010bjalizz": 7541,
  "run": 7542,
  "\u2581kwoti": 7543,
  "\u2581simplification": 7544,
  "\u2581jitne\u0127\u0127ew": 7545,
  "\u2581XVI": 7546,
  "-2004": 7547,
  "dem": 7548,
  "pensjoni": 7549,
  "\u2581Kategorija": 7550,
  "\u2581O\u0127rajn": 7551,
  "\u2581emo": 7552,
  "\u2581impjegati": 7553,
  "\u2581artifi\u010bjali": 7554,
  "\u2581absorption": 7555,
  "\u2581esportazzjoni": 7556,
  "\u2581\u0120ie": 7557,
  "\u2581\u017cjieda": 7558,
  "nomenklatura": 7559,
  "\u2581sitwazzjonijiet": 7560,
  "\u2581Resolution": 7561,
  "\u00e2": 7562,
  "\u2581bih": 7563,
  "treated": 7564,
  "\u2581inaqqas": 7565,
  "\u2581reviewed": 7566,
  "\u2581exercised": 7567,
  "laboratorju": 7568,
  "menti": 7569,
  "\u2581indicates": 7570,
  "\u2581Two": 7571,
  "Netwerk": 7572,
  "taxxi": 7573,
  "\u2581operatur": 7574,
  "\u2581g\u0127alik": 7575,
  "\u2581specially": 7576,
  "rd": 7577,
  "rit": 7578,
  "\u2581U\u017bU": 7579,
  "pet": 7580,
  "\u2581son": 7581,
  "CRR": 7582,
  "\u2581111": 7583,
  "relattivament": 7584,
  "\u2581concentrate": 7585,
  "\u2581stages": 7586,
  "\u2581Water": 7587,
  "\u2581associations": 7588,
  "\u2581presentation": 7589,
  "\u2581brake": 7590,
  "idae": 7591,
  "Latvja": 7592,
  "\u2581database": 7593,
  "g\u0127ajnejn": 7594,
  "rom": 7595,
  "\u2581[4].": 7596,
  "\u2581twe\u0121iba": 7597,
  "200": 7598,
  "\u2581jidda\u0127\u0127lu": 7599,
  "\u25812001/": 7600,
  "\u2581encouraged": 7601,
  "\u2581ikollha": 7602,
  "\u2581Civil": 7603,
  "\u2581discuss": 7604,
  "ie\u0127or": 7605,
  "\u2581alko\u0127ol": 7606,
  "cip": 7607,
  "\u2581West": 7608,
  "\u2581consolidated": 7609,
  "lopid": 7610,
  "applikanti": 7611,
  "\u2581Note": 7612,
  "\u2581Spanish": 7613,
  "gvernijiet": 7614,
  "\u2581CD": 7615,
  "\u2581Work": 7616,
  "\u2581braking": 7617,
  "\u2581independence": 7618,
  "\u2581Tnaqqis": 7619,
  "\u2581meal": 7620,
  "ret": 7621,
  "\u2581preliminari": 7622,
  "\u2581Third": 7623,
  "\u2581\u017bieda": 7624,
  "\u2581\u017cdied": 7625,
  "AUC": 7626,
  "bajd": 7627,
  "part": 7628,
  "\u2581likwidu": 7629,
  "\u2581FI": 7630,
  "\u2581flu": 7631,
  "ea": 7632,
  "\u2581XII": 7633,
  "CP": 7634,
  "\u25814.7": 7635,
  "\u2581carton": 7636,
  "\u2581male": 7637,
  "\u0121enerazzjoni": 7638,
  "\u2581replace": 7639,
  "Opinjoni": 7640,
  "\u2581inflammation": 7641,
  "\u2581jirrakkomanda": 7642,
  "\u0430": 7643,
  "\u2581criterion": 7644,
  "riformi": 7645,
  "\u2581introduce": 7646,
  "\u2581metho": 7647,
  "\u2581notifications": 7648,
  "\u2581studjat": 7649,
  "idone": 7650,
  "MB": 7651,
  "\u2581taffettwa": 7652,
  "\u2581consent": 7653,
  "sitwazzjonijiet": 7654,
  "\u2581Opinion": 7655,
  "pass": 7656,
  "\u0127amrija": 7657,
  "tis\u0127in": 7658,
  "\u2581Aid": 7659,
  "\u2581permessi": 7660,
  "\u2581alpha": 7661,
  "\u2581elettri\u010bi": 7662,
  "\u2581truth": 7663,
  "\u2581ikomplu": 7664,
  "\u2581passi": 7665,
  "\u2581jaffettwa": 7666,
  "\u2581vulnerabbli": 7667,
  "dimensjoni": 7668,
  "with": 7669,
  "\u2581Taqsima": 7670,
  "\u2581re\u0121juni": 7671,
  "tt": 7672,
  "qieg\u0127": 7673,
  "\u2581jikkunsidraw": 7674,
  "\u2581antibodies": 7675,
  "problema": 7676,
  "\u2581message": 7677,
  "TS": 7678,
  "kan\u010ber": 7679,
  "far": 7680,
  "\u2581kapsula": 7681,
  "\u2581msemmijin": 7682,
  "ob": 7683,
  "\u2581adequately": 7684,
  "\u2581involut": 7685,
  "nthrop": 7686,
  "\u2581qualifications": 7687,
  "\u2581meqjus": 7688,
  "g\u0127andek": 7689,
  "\u2581Si": 7690,
  "passi": 7691,
  "\u2581awarded": 7692,
  "\u2581banknotes": 7693,
  "\u2581differenzi": 7694,
  "\u2581kimo": 7695,
  "\u2581\u0127akk": 7696,
  "\u2581supplier": 7697,
  "pro\u010bedimenti": 7698,
  "\u2581jil\u0127aq": 7699,
  "\u0127a\u017cna": 7700,
  "SP": 7701,
  "\u2581jkomplu": 7702,
  "lar": 7703,
  "\u2581bihom": 7704,
  "\u2581diameter": 7705,
  "400": 7706,
  "\u2581128": 7707,
  "\u2581per\u010bentwali": 7708,
  "\u2581horizontal": 7709,
  "dati": 7710,
  "\u2581IFRS": 7711,
  "agon": 7712,
  "g\u0127a\u017cliet": 7713,
  "relatively": 7714,
  "\u2581implimentat": 7715,
  "\u2581carrier": 7716,
  "\u2581jkompli": 7717,
  "\u2581spiritwali": 7718,
  "indipendenza": 7719,
  "ofi": 7720,
  "\u2581218": 7721,
  "idog": 7722,
  "\u2581396/2005": 7723,
  "\u2581Hi": 7724,
  "\u2581Lithuania": 7725,
  "\u2581attent": 7726,
  "\u2581fa\u010bilitajiet": 7727,
  "\u2581partnerships": 7728,
  "\u2581Life": 7729,
  "\u2581infringement": 7730,
  "CS": 7731,
  "SI": 7732,
  "\u2581depression": 7733,
  "\u2581intrapri\u017ci": 7734,
  "TO": 7735,
  "\u2581Kont": 7736,
  "ising": 7737,
  "\u2581Risk": 7738,
  "xjenza": 7739,
  "ieth": 7740,
  "\u2581verified": 7741,
  "\u2581armi": 7742,
  "\u2581conservation": 7743,
  "\u25812-": 7744,
  "kompo\u017cizzjoni": 7745,
  "\u2581levo": 7746,
  "\u2581imwettqa": 7747,
  "\u2581126": 7748,
  "\u2581JI": 7749,
  "\u2581issuq": 7750,
  "mel": 7751,
  "\u258123.": 7752,
  "\u2581recovered": 7753,
  "\u2581transmitted": 7754,
  "\u2581Kontenut": 7755,
  "\u2581regarded": 7756,
  "A\u0121enda": 7757,
  "\u2581affettwati": 7758,
  "\u2581block": 7759,
  "\u2581po\u017cittiva": 7760,
  "istonku": 7761,
  "\u2581tappo\u0121\u0121a": 7762,
  "\u2581varji": 7763,
  "\u2581integrata": 7764,
  "\u2581li\u010b": 7765,
  "\u2581lost": 7766,
  "ning": 7767,
  "\u2581unknown": 7768,
  "\u25812014-2020": 7769,
  "\u2581Main": 7770,
  "Ministeru": 7771,
  "\u2581EWROPEW": 7772,
  "haler": 7773,
  "\u2581ensured": 7774,
  "\u2581estimates": 7775,
  "\u2581ng": 7776,
  "\u2581jqisu": 7777,
  "erja": 7778,
  "\u2581trattati": 7779,
  "2001": 7780,
  "bis": 7781,
  "\u0121en": 7782,
  "PD": 7783,
  "numri": 7784,
  "mol": 7785,
  "\u2581fourth": 7786,
  "\u2581limiti": 7787,
  "\u2581producing": 7788,
  "throp": 7789,
  "\u2581supplies": 7790,
  ".3%": 7791,
  "HR": 7792,
  "ugwaljanza": 7793,
  "\u2581assurance": 7794,
  "\u2581detection": 7795,
  "\u2581orders": 7796,
  "/1/0": 7797,
  "\u2581\u010aeka": 7798,
  "\u2581band": 7799,
  "\u2581jfisser": 7800,
  "\u2581sometimes": 7801,
  "\u2581Mi": 7802,
  "Afganistan": 7803,
  "\u2581commonly": 7804,
  "\u2581acceptance": 7805,
  "\u2581obstacles": 7806,
  "\u2581publicly": 7807,
  "\u2581multiannual": 7808,
  "\u2581resident": 7809,
  "AX": 7810,
  "FI": 7811,
  "\u2581tikkonkludi": 7812,
  "\u2581Place": 7813,
  "\u2581arms": 7814,
  "\u2581KUNDIZZJONIJIET": 7815,
  "nsulin": 7816,
  "\u2581pollution": 7817,
  "\u2581professionals": 7818,
  "\u2581Manifattura": 7819,
  "\u2581remained": 7820,
  "\u2581indi": 7821,
  "\u2581tinforma": 7822,
  "CV": 7823,
  "\u2581\u0127tie\u0121a": 7824,
  "\u2581Afghanistan": 7825,
  "\u2581broadband": 7826,
  "\u2581individwu": 7827,
  "\u2581jevitaw": 7828,
  "ula": 7829,
  "\u2581dated": 7830,
  "\u2581roaming": 7831,
  "testi": 7832,
  "\u2581Forum": 7833,
  "\u2581estimate": 7834,
  "kuntatt": 7835,
  "\u2581acquired": 7836,
  "mark": 7837,
  "\u2581profitability": 7838,
  "sostenibbilt\u00e0": 7839,
  "\u2581Standing": 7840,
  "\u2581Holder": 7841,
  "\u2581pjuttost": 7842,
  "\u2581preach": 7843,
  "\u2581proportionality": 7844,
  "\u2581indicator": 7845,
  "\u2581primarju": 7846,
  "\u2581sotto": 7847,
  "ferrovija": 7848,
  "fidu\u010bja": 7849,
  "ric": 7850,
  "FP": 7851,
  "\u2581Tali": 7852,
  "\u2581teknolo\u0121ija": 7853,
  ".13": 7854,
  "ogre": 7855,
  "\u2581folji": 7856,
  "\u2581frekwenti": 7857,
  "\u2581jin\u0127olqu": 7858,
  "Annimali": 7859,
  "\u2581educational": 7860,
  "simplifikazzjoni": 7861,
  "\u2581evaluate": 7862,
  "\u2581sens": 7863,
  "\u2581Ser": 7864,
  "sett": 7865,
  "B\u010aNi": 7866,
  "\u2581Maritime": 7867,
  "\u2581annex": 7868,
  "\u2581jirrigwarda": 7869,
  "\u2581bejniethom": 7870,
  "\u2581poultry": 7871,
  "\u2581definita": 7872,
  "\u2581ESMA": 7873,
  "\u2581awto": 7874,
  "\u2581ffinanzjati": 7875,
  "diversit\u00e0": 7876,
  "\u2581Year": 7877,
  "\u2581legalment": 7878,
  "\u2581yarn": 7879,
  "MENT": 7880,
  "\u2581sanctions": 7881,
  "\u25811990": 7882,
  "\u2581Environment": 7883,
  "\u2581certainty": 7884,
  "\u2581lives": 7885,
  "\u2581inside": 7886,
  "\u2581tilqa": 7887,
  "\u2581peak": 7888,
  "\u2581\u0120ENERALI": 7889,
  "\u2581g\u0127ajnejn": 7890,
  "\u2581preventing": 7891,
  "\u2581Iceland": 7892,
  "\u2581medi\u010bi": 7893,
  "\u2581background": 7894,
  "gabal": 7895,
  "\u2581engaged": 7896,
  "\u2581idde\u010bieda": 7897,
  "mobilit\u00e0": 7898,
  "\u2581Norwegian": 7899,
  "CI": 7900,
  "\u2581ne": 7901,
  "\u2581employed": 7902,
  "isti": 7903,
  "\u2581antikorpi": 7904,
  "Xog\u0127ol": 7905,
  "istudenti": 7906,
  "\u2581S\u0127ubija": 7907,
  "\u2581whilst": 7908,
  "IAS": 7909,
  "\u2581diffikultajiet": 7910,
  "\u2581vote": 7911,
  "\u2581wild": 7912,
  "\u2581Entry": 7913,
  "\u2581jikkostitwixxi": 7914,
  "azzjonisti": 7915,
  "\u2581clean": 7916,
  "vot": 7917,
  "\u2581XIII": 7918,
  "\u2581evalwati": 7919,
  "\u2581konklu\u017ci": 7920,
  "\u2581mixtures": 7921,
  "\u2581Agenda": 7922,
  "\u2581u\u017ca": 7923,
  "kor": 7924,
  "\u2581Rare": 7925,
  "\u2581o\u0121\u0121ett": 7926,
  "ST": 7927,
  "\u2581Declaration": 7928,
  "\u2581Reg": 7929,
  "\u2581mfassla": 7930,
  "rad": 7931,
  "taza": 7932,
  "\u2581Manufacture": 7933,
  "\u2581Tru": 7934,
  "\u2581jirreferi": 7935,
  "\u2581median": 7936,
  "meta": 7937,
  "\u2581[6]": 7938,
  "ions": 7939,
  "\u2581correction": 7940,
  "\u2581poor": 7941,
  "\u2581bovine": 7942,
  "\u2581sottostanti": 7943,
  "82": 7944,
  "jekk": 7945,
  "\u2581Slovenia": 7946,
  "\u2581firien": 7947,
  "\u2581jiffa\u010bilitaw": 7948,
  "IV": 7949,
  "\u2581Stampa": 7950,
  "\u2581Par": 7951,
  "\u2581Pjan": 7952,
  "van": 7953,
  "\u2581NCB": 7954,
  "\u2581absolute": 7955,
  "\u2581sturdament": 7956,
  "\u2581dizziness": 7957,
  "\u2581TWISSIJA": 7958,
  "\u2581achievement": 7959,
  "\u2581schedule": 7960,
  "gassijiet": 7961,
  "\u2581\u0127afif": 7962,
  "\u2581\u0127lasijiet": 7963,
  "ATE": 7964,
  "\u2581le\u0121i\u017clazzjoni": 7965,
  "sol": 7966,
  "\u2581129": 7967,
  "\u2581in\u010bidenza": 7968,
  "/5": 7969,
  "\u2581bojod": 7970,
  "\u2581funzjonali": 7971,
  "\u2581\u017bvilupp": 7972,
  "vini": 7973,
  "\u2581authentic": 7974,
  "\u2581ef": 7975,
  "\u2581mni\u017c\u017cla": 7976,
  "EV": 7977,
  "\u2581counter": 7978,
  "\u2581deep": 7979,
  "amm": 7980,
  "ight": 7981,
  "\u0127all": 7982,
  "\u2581wassal": 7983,
  "para": 7984,
  "\u2581advised": 7985,
  "ack": 7986,
  "\u2581Jo": 7987,
  "\u2581jikkorrispondi": 7988,
  "\u2581metabolism": 7989,
  "\u2581withdraw": 7990,
  "FA": 7991,
  "ien": 7992,
  "\u2581examples": 7993,
  "\u2581indicating": 7994,
  "\u25812017/2": 7995,
  "\u2581I\u017crael": 7996,
  "reazzjoni": 7997,
  "\u2581provvista": 7998,
  "\u2581relate": 7999,
  "kunsens": 8000,
  "Ombudsman": 8001,
  "\u2581proof": 8002,
  "somma": 8003,
  "\u2581Ren": 8004,
  "\u2581mmirati": 8005,
  "\u2581APPEAR": 8006,
  "\u2581ba\u0121itarja": 8007,
  "OECD": 8008,
  "istima": 8009,
  "\u2581considering": 8010,
  "\u2581riforma": 8011,
  "\u2581adolexxenti": 8012,
  "\u2581del": 8013,
  "\u2581divided": 8014,
  "\u2581impose": 8015,
  "\u2581deployment": 8016,
  "\u2581marking": 8017,
  "\u2581safeguard": 8018,
  "\u2581substantially": 8019,
  "\u2581vials": 8020,
  "Smith": 8021,
  "\u2581Eli": 8022,
  "\u2581Peter": 8023,
  "\u2581conclude": 8024,
  "postl": 8025,
  "\u2581Merck": 8026,
  "\u2581Parkinson": 8027,
  "ind": 8028,
  "\u2581coherent": 8029,
  "\u2581twent": 8030,
  "\u2581ittra": 8031,
  "\u2581Also": 8032,
  "\u2581flessibbli": 8033,
  "8)": 8034,
  "De": 8035,
  "kodi\u010bijiet": 8036,
  "\u2581FORM": 8037,
  "oten": 8038,
  "\u2581Isa": 8039,
  "\u2581DG": 8040,
  "Bniedem": 8041,
  "\u2581Category": 8042,
  "ktar": 8043,
  "\u2581IAS": 8044,
  "\u2581Ombudsman": 8045,
  "\u2581marittimu": 8046,
  "prattiki": 8047,
  "\u2581Res": 8048,
  "losporin": 8049,
  "reazzjonijiet": 8050,
  "zo": 8051,
  "\u2581Our": 8052,
  "tes": 8053,
  "\u2581B\u010aE": 8054,
  "\u2581considerable": 8055,
  "\u2581Constitution": 8056,
  "\u2581Jen\u0127tie\u0121": 8057,
  "etta": 8058,
  "\u2581AD": 8059,
  "\u2581America": 8060,
  "\u2581contrary": 8061,
  "\u2581ing\u0127ata": 8062,
  "CM": 8063,
  "una": 8064,
  "Slovenja": 8065,
  "\u258112%": 8066,
  "\u2581increasingly": 8067,
  "qg\u0127ad": 8068,
  "\u2581Komunikazzjoni": 8069,
  "\u2581survey": 8070,
  "\u2581terminu": 8071,
  "\u2581impaired": 8072,
  "\u2581jikkaw\u017caw": 8073,
  "\u2581\u0127fief": 8074,
  "Protezzjoni": 8075,
  "ILLE": 8076,
  "\u2581salts": 8077,
  "bel": 8078,
  "\u2581tintla\u0127aq": 8079,
  "\u2581jidde\u010biedu": 8080,
  "\u2581me\u0127ud": 8081,
  "\u2581adaptation": 8082,
  "nia": 8083,
  "uffi\u010bjali": 8084,
  "\u2581estensjoni": 8085,
  "ters": 8086,
  "\u2581favourable": 8087,
  "\u2581enhancing": 8088,
  "\u2581identifying": 8089,
  "\u2581dissemination": 8090,
  "\u043e": 8091,
  "\u2581interval": 8092,
  "terrori\u017cmu": 8093,
  "\u2581manufactured": 8094,
  "\u2581manutenzjoni": 8095,
  "\u2581Ftehim": 8096,
  "\u2581meets": 8097,
  "\u2581assorbiment": 8098,
  "\u2581provvi\u017corju": 8099,
  "\u2581darb": 8100,
  "\u2581gear": 8101,
  "\u2581sforz": 8102,
  "CE": 8103,
  "\u2581Vi\u010bi": 8104,
  "ver\u017cjoni": 8105,
  "\u2581fidu\u010bja": 8106,
  "omm": 8107,
  "str": 8108,
  "\u2581Picture": 8109,
  "\u2581komprensiv": 8110,
  "\u2581li\u010benzja": 8111,
  "\u2581panel": 8112,
  "\u2581Estonia": 8113,
  "\u2581Lisbona": 8114,
  "\u0127atra": 8115,
  "\u2581FROM": 8116,
  "\u2581lending": 8117,
  "\u2581fornituri": 8118,
  "\u2581opportunit\u00e0": 8119,
  "\u2581ma\u017c": 8120,
  "uc": 8121,
  "tat": 8122,
  "\u2581something": 8123,
  "iga": 8124,
  "OV": 8125,
  "\u2581METHOD": 8126,
  "\u2581alternattiva": 8127,
  "\u2581tobacco": 8128,
  "\u2581Illum": 8129,
  "EMEA": 8130,
  "\u2581slightly": 8131,
  "\u2581suggest": 8132,
  "\u010ber": 8133,
  "Ajru": 8134,
  "\u2581(2009)": 8135,
  "offerta": 8136,
  "lix": 8137,
  "\u2581facilitating": 8138,
  "\u2581facts": 8139,
  "\u2581noise": 8140,
  "tru": 8141,
  "\u2581Description": 8142,
  "\u2581ospitanti": 8143,
  "\u2581thickness": 8144,
  "\u2581122": 8145,
  "\u2581Governattiv": 8146,
  "EST": 8147,
  "gan": 8148,
  "\u2581Parts": 8149,
  "ilden": 8150,
  "\u2581separata": 8151,
  "\u2581height": 8152,
  "EG": 8153,
  "stan": 8154,
  "\u2581INFORMAZZJONI": 8155,
  "\u2581Monitoring": 8156,
  "\u2581himself": 8157,
  "\u2581konvenzjonali": 8158,
  "\u2581Bu": 8159,
  "espo\u017cizzjoni": 8160,
  "\u010b\u010b": 8161,
  "\u2581Statute": 8162,
  "\u2581owned": 8163,
  "\u2581procedural": 8164,
  "\u2581dependent": 8165,
  "\u2581drugs": 8166,
  "\u2581banek": 8167,
  "\u2581miri": 8168,
  "jan": 8169,
  "\u0121ustizzja": 8170,
  "\u2581immuno": 8171,
  "\u2581solidarity": 8172,
  "ery": 8173,
  "rilaxx": 8174,
  "\u2581funded": 8175,
  "\u2581#": 8176,
  "\u2581showing": 8177,
  "produttivit\u00e0": 8178,
  "\u2581xog\u0127lijiet": 8179,
  "profil": 8180,
  "sottomissjoni": 8181,
  "\u2581bar": 8182,
  "\u2581harmful": 8183,
  "\u2581smaller": 8184,
  "eni": 8185,
  "\u2581popolazzjoni": 8186,
  "\u2581\u0127ila": 8187,
  "tel": 8188,
  "\u2581consist": 8189,
  "\u2581portfolio": 8190,
  "Ukraina": 8191,
  "\u2581reply": 8192,
  "\u2581Russia": 8193,
  "\u2581breeding": 8194,
  "\u2581tra\u017cmissjoni": 8195,
  "\u2581[9]": 8196,
  "\u2581black": 8197,
  "fa\u010bilit\u00e0": 8198,
  "\u2581talbet": 8199,
  "Mediterran": 8200,
  "\u0161": 8201,
  "\u2581introdotti": 8202,
  "\u25812020,": 8203,
  "\u2581owner": 8204,
  "\u2581jinforma": 8205,
  "\u2581ppubblikat": 8206,
  "\u2581tfittex": 8207,
  "qrati": 8208,
  "\u258119,": 8209,
  "\u2581consulting": 8210,
  "\u2581jvarjaw": 8211,
  "raw": 8212,
  "\u2581sider": 8213,
  "websajt": 8214,
  "tessuti": 8215,
  "\u2581jag\u0127\u017clu": 8216,
  "\u2581recommends": 8217,
  "ick": 8218,
  "ttejjeb": 8219,
  "\u2581xjentifiku": 8220,
  "rappre\u017centattivi": 8221,
  "\u2581bu": 8222,
  "\u2581infrastruttura": 8223,
  "\u2581iwassal": 8224,
  "tran": 8225,
  "klu": 8226,
  "\u2581sforzi": 8227,
  "\u2581Kumitat": 8228,
  "\u2581mellitus": 8229,
  "\u2581Barranin": 8230,
  "\u2581li\u0121i": 8231,
  "\u2581sekondarju": 8232,
  "\u2581\u0127omor": 8233,
  "sitt": 8234,
  "NG": 8235,
  "\u0127xejjex": 8236,
  "AB": 8237,
  "Pa": 8238,
  "\u2581cold": 8239,
  "2004": 8240,
  "\u2581diversity": 8241,
  "\u2581bastiment": 8242,
  "\u2581episodj": 8243,
  "\u2581pure": 8244,
  "NM": 8245,
  "\u2581Review": 8246,
  "edi": 8247,
  "ria": 8248,
  "\u2581standardisation": 8249,
  "\u2581299": 8250,
  "\u2581540/2011": 8251,
  "\u2581PRO": 8252,
  "\u2581ba\u0121itarji": 8253,
  "\u2581candidate": 8254,
  "\u2581ordinary": 8255,
  "reg": 8256,
  "\u2581voltage": 8257,
  "PO": 8258,
  "\u2581Pr": 8259,
  "\u2581jirrifletti": 8260,
  "\u2581jikkonsistu": 8261,
  "\u2581naqas": 8262,
  "olic": 8263,
  "bus": 8264,
  "\u2581Mon": 8265,
  "\u0127as": 8266,
  "\u25813)": 8267,
  "\u2581exceeds": 8268,
  "\u2581extreme": 8269,
  "\u2581Mission": 8270,
  "\u2581G\u0127ajnuna": 8271,
  "\u2581appost": 8272,
  "\u2581becomes": 8273,
  "\u2581house": 8274,
  "Investiment": 8275,
  "denti": 8276,
  "rid": 8277,
  "\u2581mira": 8278,
  "etax": 8279,
  "\u2581breach": 8280,
  "\u2581worship": 8281,
  "\u2581Cor": 8282,
  "aff": 8283,
  "\u2581courts": 8284,
  "\u2581jaqsmu": 8285,
  "kaw": 8286,
  "\u2581g\u0127alfejn": 8287,
  "\u2581glycol": 8288,
  "uria": 8289,
  "\u2581ne\u010bessarja": 8290,
  "\u2581Then": 8291,
  "\u2581quickly": 8292,
  "osservazzjoni": 8293,
  "\u2581115": 8294,
  "\u2581jit\u0127allsu": 8295,
  "TE": 8296,
  "\u2581joffri": 8297,
  "\u2581operattiv": 8298,
  "\u2581violence": 8299,
  "\u25814)": 8300,
  "Liechtenstein": 8301,
  "jen": 8302,
  "\u2581mudelli": 8303,
  "financing": 8304,
  "\u2581kunfidenzjali": 8305,
  "\u2581Liechtenstein": 8306,
  "\u2581rrapportati": 8307,
  "\u2581frisk": 8308,
  "\u2581ladarba": 8309,
  "\u2581regimen": 8310,
  "ugh": 8311,
  "\u2581Credit": 8312,
  "\u2581marketed": 8313,
  "\u2581Sch": 8314,
  "\u2581ng\u0127idu": 8315,
  "Membri": 8316,
  "\u2581establishes": 8317,
  "\u2581failed": 8318,
  "\u2581forces": 8319,
  "\u2581jaqbel": 8320,
  "\u258122.": 8321,
  "\u2581infurzar": 8322,
  "\u2581nominal": 8323,
  "fuq": 8324,
  "\u2581Neu": 8325,
  "\u2581appliances": 8326,
  "sodju": 8327,
  "\u2581esti\u017ca": 8328,
  "\u2581in\u010bi\u017c": 8329,
  "\u2581let": 8330,
  "\u2581supervi\u017corji": 8331,
  "ee": 8332,
  "\u2581(>": 8333,
  "\u2581ri\u017coluzzjoni": 8334,
  "illa": 8335,
  "\u2581Tak": 8336,
  "\u2581seem": 8337,
  "\u2581aquaculture": 8338,
  "in\u0121enji": 8339,
  "\u2581cartridge": 8340,
  "\u2581e\u017caminat": 8341,
  "\u2581Capital": 8342,
  "que": 8343,
  "\u2581ta\u0121ixxi": 8344,
  "RU": 8345,
  "humiex": 8346,
  "\u2581toffri": 8347,
  "\u2581pariri": 8348,
  "\u25812006/": 8349,
  "\u2581Swiss": 8350,
  "\u2581<=": 8351,
  "\u2581cotton": 8352,
  "\u2581branch": 8353,
  "\u2581eight": 8354,
  "\u2581espert": 8355,
  "\u2581Sistemi": 8356,
  "\u2581ekonomija": 8357,
  "\u2581template": 8358,
  "TEN": 8359,
  "\u2581MI": 8360,
  "\u2581tassew": 8361,
  "\u2581Pen": 8362,
  "\u2581GENERAL": 8363,
  "rimi": 8364,
  "\u2581Guideline": 8365,
  "\u2581amino": 8366,
  "\u2581productivity": 8367,
  "ejt": 8368,
  "WTO": 8369,
  "\u2581Technology": 8370,
  "\u2581\u017cgurati": 8371,
  "ISTA": 8372,
  "\u2581MHz": 8373,
  "\u2581cities": 8374,
  "\u2581reflected": 8375,
  "verifiki": 8376,
  "\u2581Option": 8377,
  "\u2581e\u017caminati": 8378,
  "\u2581jaqa": 8379,
  "niex": 8380,
  "\u2581.\"": 8381,
  "\u2581Reporting": 8382,
  "\u2581authorising": 8383,
  "\u2581te\u017cisti": 8384,
  "\u2581karta": 8385,
  "\u2581mibdul": 8386,
  "nja": 8387,
  "\u2581001": 8388,
  "\u2581responses": 8389,
  "\u2581largest": 8390,
  "mune": 8391,
  "\u010birkolazzjoni": 8392,
  "\u2581Day": 8393,
  "\u2581tonqos": 8394,
  "territorji": 8395,
  "\u2581jaqbi\u017cx": 8396,
  "\u2581sfidi": 8397,
  "IK": 8398,
  "\u2581severi": 8399,
  "NE": 8400,
  "tikkettar": 8401,
  "\u2581app": 8402,
  "\u2581prevenzjoni": 8403,
  "ALI": 8404,
  "komunit\u00e0": 8405,
  "profitt": 8406,
  "\u25811993": 8407,
  "\u2581G\u0127add": 8408,
  "\u2581Vice": 8409,
  "\u2581foreseen": 8410,
  "\u2581rif": 8411,
  "\u2581Lot": 8412,
  "\u2581biocid": 8413,
  "\u2581sizes": 8414,
  "\u2581complies": 8415,
  "sa\u0127\u0127itha": 8416,
  "\u2581Growth": 8417,
  "month": 8418,
  "\u2581Administrative": 8419,
  "\u2581119": 8420,
  "\u2581Region": 8421,
  "\u2581\u0127adid": 8422,
  "ud": 8423,
  "\u2581185": 8424,
  "Missjoni": 8425,
  "uffi\u010bjal": 8426,
  "\u2581authorise": 8427,
  "\u00a9": 8428,
  "\u2581holders": 8429,
  "ista": 8430,
  "pr": 8431,
  "\u2581Red": 8432,
  "row": 8433,
  "\u2581350": 8434,
  "\u2581calculating": 8435,
  "\u2581yourself": 8436,
  "FT": 8437,
  "\u2581teaching": 8438,
  "010": 8439,
  "\u2581Slovakia": 8440,
  "\u2581sensitive": 8441,
  "\u2581foods": 8442,
  "\u2581tiffa\u010bilita": 8443,
  "\u2581containers": 8444,
  "\u2581tittejjeb": 8445,
  "\u2581rrakkomandat": 8446,
  "\u2581talbiet": 8447,
  "Konferenza": 8448,
  "\u2581revenues": 8449,
  "ori": 8450,
  "\u2581analysed": 8451,
  "\u2581potenzjal": 8452,
  "Ara": 8453,
  "\u2581Due": 8454,
  "\u2581som": 8455,
  "\u2581threat": 8456,
  "\u0127obb": 8457,
  "\u2581Medi\u010bini": 8458,
  "imballa\u0121\u0121": 8459,
  "\u2581jinstab": 8460,
  "\u2581randomis": 8461,
  "ERS": 8462,
  "parin": 8463,
  "Segretarjat": 8464,
  "\u2581tourism": 8465,
  "\u2581finding": 8466,
  "\u2581guaranteed": 8467,
  "\u2581combustion": 8468,
  "controlled": 8469,
  "ispezzjoni": 8470,
  "\u2581Grad": 8471,
  "\u2581tiddependi": 8472,
  "\u2581welfare": 8473,
  "Istatut": 8474,
  "kaxxa": 8475,
  "war": 8476,
  "anofi": 8477,
  "\u2581Decisions": 8478,
  "\u2581satisfy": 8479,
  "\u010bentri": 8480,
  "\u2581(2010)": 8481,
  "\u2581fer\u0127": 8482,
  "\u25811.8": 8483,
  "\u2581Global": 8484,
  "\u2581Issa": 8485,
  "\u2581avoided": 8486,
  "\u2581City": 8487,
  "\u2581Dose": 8488,
  "\u2581TARGET": 8489,
  "\u2581sostituzzjoni": 8490,
  "\u2581spectrum": 8491,
  "\u2581trend": 8492,
  "\u2581discontinuation": 8493,
  "\u2581\u017cidiet": 8494,
  "\u2581vertikali": 8495,
  "\u2581simply": 8496,
  "calc": 8497,
  "\u2581acetate": 8498,
  "\u2581ktieb": 8499,
  "\u2581sheets": 8500,
  "\u2581Roma": 8501,
  "\u2581urew": 8502,
  "\u2581Nor": 8503,
  "\u2581akuta": 8504,
  "\u2581changing": 8505,
  "\u2581intention": 8506,
  "ano": 8507,
  "komponent": 8508,
  "\u2581titjieb": 8509,
  "\u2581victims": 8510,
  "\u2581eligibility": 8511,
  "pla\u010bebo": 8512,
  "\u2581fri\u0121\u0121": 8513,
  "\u2581economies": 8514,
  "\u2581empowered": 8515,
  "\u2581sectoral": 8516,
  "\u2581fissa": 8517,
  "rea": 8518,
  "rem": 8519,
  "ska": 8520,
  "\u2581annexed": 8521,
  "\u2581enzyme": 8522,
  "Os": 8523,
  "posta": 8524,
  "\u2581monthly": 8525,
  "\u2581pursue": 8526,
  "\u25810,5": 8527,
  "\u2581jikkooperaw": 8528,
  "\u2581AL": 8529,
  "\u2581Education": 8530,
  "\u2581Referenza": 8531,
  "\u2581adopting": 8532,
  "\u2581tidentifika": 8533,
  "\u2581komprensiva": 8534,
  "\u2581Mag\u0127quda": 8535,
  "\u2581tixtieq": 8536,
  "\u2581Its": 8537,
  "\u2581leali": 8538,
  "\u2581\u0127a\u017cina": 8539,
  "armi": 8540,
  "\u2581combat": 8541,
  "top": 8542,
  "\u2581brain": 8543,
  "IRY": 8544,
  "las": 8545,
  "\u2581ippubblikata": 8546,
  "\u2581Both": 8547,
  "\u2581indikata": 8548,
  "\u2581track": 8549,
  "ceta": 8550,
  "ena": 8551,
  "old": 8552,
  "\u2581wider": 8553,
  "onary": 8554,
  "torja": 8555,
  "\u2581a\u0121enti": 8556,
  "\u2581jtejbu": 8557,
  "\u2581jinstabu": 8558,
  "\u2581ng\u0127ata": 8559,
  "\u2581outstanding": 8560,
  "brejk": 8561,
  "0000": 8562,
  "ets": 8563,
  "bdominal": 8564,
  "\u0121arr": 8565,
  "\u2581Ac": 8566,
  "\u2581considerations": 8567,
  "\u2581msa\u0127\u0127a": 8568,
  "\u2581communicated": 8569,
  "\u2581lingwa": 8570,
  "\u2581conventional": 8571,
  "\u2581moment": 8572,
  "zzati": 8573,
  "\u2581kkonkludiet": 8574,
  "\u2581cis": 8575,
  "\u2581ip": 8576,
  "istampa": 8577,
  "\u2581rappre\u017centanti": 8578,
  "\u2581turnover": 8579,
  "\u2581dumped": 8580,
  "\u2581jiem": 8581,
  "blind": 8582,
  "\u2581governanza": 8583,
  "\u2581jointly": 8584,
  "\u2581tivvaluta": 8585,
  "\u2581helping": 8586,
  "\u2581Nota": 8587,
  "\u2581boost": 8588,
  "\u2581karti": 8589,
  "tran\u017cazzjoni": 8590,
  "EP": 8591,
  "\u2581iwettaq": 8592,
  "\u2581metaboli\u017cmu": 8593,
  "passat": 8594,
  "\u2581(11)": 8595,
  "\u2581Today": 8596,
  "\u2581discussions": 8597,
  "\u2581scrutiny": 8598,
  "\u2581supplimentari": 8599,
  "\u25812/": 8600,
  "\u25812005.": 8601,
  "\u2581indirectly": 8602,
  "Qafas": 8603,
  "Trattati": 8604,
  "nes": 8605,
  "pra": 8606,
  "\u2581Bureau": 8607,
  "\u2581immune": 8608,
  "eo": 8609,
  "\u2212": 8610,
  "\u2581Ca": 8611,
  "\u2581infushom": 8612,
  "\u2581shareholders": 8613,
  "\u2581kri\u017ci": 8614,
  "\u2581visual": 8615,
  "\u2581stimulate": 8616,
  "\u2581(5),": 8617,
  "\u2581innovazzjoni": 8618,
  "\u2581team": 8619,
  "distanza": 8620,
  "Innovazzjoni": 8621,
  "tqassim": 8622,
  "\u2581Secretariat": 8623,
  "ilment": 8624,
  "\u2581MS": 8625,
  "\u2581O\u0126RA": 8626,
  "\u2581reserves": 8627,
  "\u2581functional": 8628,
  "\u2581mixture": 8629,
  "\u2581adapted": 8630,
  "armonizzazzjoni": 8631,
  "t\u0127assib": 8632,
  "\u2581integrazzjoni": 8633,
  "\u2581late": 8634,
  "\u2581trends": 8635,
  "\u2581\u00d6": 8636,
  "\u2581nurse": 8637,
  "/12": 8638,
  "ations": 8639,
  "\u2581subsidiary": 8640,
  "affarijiet": 8641,
  "ulm": 8642,
  "\u2581predominantly": 8643,
  "\u2581\u0127adet": 8644,
  "\u2581adattat": 8645,
  "\u2581EUSR": 8646,
  "OM": 8647,
  "\u2581supplementary": 8648,
  "\u2581Institute": 8649,
  "\u2581valuation": 8650,
  "\u0121urisdizzjoni": 8651,
  "\u2581intervals": 8652,
  "\u258127.": 8653,
  "\u2581ML": 8654,
  "\u2581muskoli": 8655,
  ".10": 8656,
  "\u2581selling": 8657,
  "\u2581Ch": 8658,
  "\u2581bijo\u010bidali": 8659,
  "EK": 8660,
  "don": 8661,
  "illy": 8662,
  "pulizija": 8663,
  "\u2581iebsa": 8664,
  "\u2581pr": 8665,
  "\u2581dispute": 8666,
  "pensjonijiet": 8667,
  "\u2581interessi": 8668,
  "\u2581built": 8669,
  "\u2581larger": 8670,
  "\u2581brothers": 8671,
  "kif": 8672,
  "\u2581potenzjalment": 8673,
  "del": 8674,
  "\u2581inclusive": 8675,
  "Estonja": 8676,
  "nal": 8677,
  "\u2581(1.": 8678,
  "\u2581mechanical": 8679,
  "\u2581Dwar": 8680,
  "cr": 8681,
  "Ambjent": 8682,
  "\u2581police": 8683,
  "portijiet": 8684,
  "\u2581ter": 8685,
  "istrate\u0121iji": 8686,
  "\u2581flying": 8687,
  "istorja": 8688,
  "\u2581in\u0121enji": 8689,
  "RSUE": 8690,
  "kariga": 8691,
  "sch": 8692,
  "\u2581gassijiet": 8693,
  "\u2581xiri": 8694,
  "\u2581sema": 8695,
  "\u2581ru\u0127ha": 8696,
  "frodi": 8697,
  "tejjeb": 8698,
  "\u2581se\u0127\u0127ew": 8699,
  "NO": 8700,
  "\u2581deposit": 8701,
  "\u2581109": 8702,
  "As": 8703,
  "\u2581farmakokinetika": 8704,
  "dwana": 8705,
  "KAD": 8706,
  "Sezzjoni": 8707,
  "\u2581PACKAGING": 8708,
  "\u2581rappre\u017centant": 8709,
  "tics": 8710,
  "\u2581tifel": 8711,
  "\u2581mitlub": 8712,
  "\u2581title": 8713,
  "awrina": 8714,
  "\u2581e\u017cenzjoni": 8715,
  "\u2581Ladarba": 8716,
  "\u2581cooperating": 8717,
  "iro": 8718,
  "\u2581akkwist": 8719,
  "\u2581freight": 8720,
  "\u2581offerti": 8721,
  "\u2581began": 8722,
  "\u2581jara": 8723,
  "\u2581NO": 8724,
  "\u2581Tra": 8725,
  "\u2581oversight": 8726,
  "\u2581\u010aipru": 8727,
  "ejjem": 8728,
  "formula": 8729,
  "\u2581Study": 8730,
  "addittivi": 8731,
  "\u0127nie\u017cer": 8732,
  "i\u0121": 8733,
  "i\u017cgurar": 8734,
  "ante": 8735,
  "diabetic": 8736,
  "\u2581117": 8737,
[...]
